#ifndef CNN_FPGA_H_   
#define CNN_FPGA_H_

#define IMAGE_WIDTH 28
#define IMAGE_SIZE 784
#define NR_WEIGHT 32262


#include <stdint.h>
#include <stddef.h>

int16_t image_fp[IMAGE_SIZE] = {
0,
0,
0,
0,
0,
0,
0,
0,
0,
0,
0,
0,
0,
0,
0,
0,
0,
0,
0,
0,
0,
0,
0,
0,
0,
0,
0,
0,
0,
0,
0,
0,
0,
0,
0,
0,
0,
0,
0,
0,
0,
0,
0,
0,
0,
0,
0,
0,
0,
0,
0,
0,
0,
0,
0,
0,
0,
0,
0,
0,
0,
0,
0,
0,
0,
0,
0,
1,
1,
1,
0,
0,
0,
0,
0,
0,
0,
0,
0,
0,
0,
0,
0,
0,
0,
0,
0,
0,
0,
0,
0,
0,
0,
1,
1,
1,
1,
1,
1,
1,
0,
0,
0,
0,
0,
0,
0,
0,
0,
0,
0,
0,
0,
0,
0,
0,
0,
0,
0,
0,
0,
1,
1,
0,
0,
0,
1,
1,
1,
0,
0,
0,
0,
0,
0,
0,
0,
0,
0,
0,
0,
0,
0,
0,
0,
0,
0,
0,
0,
1,
0,
0,
0,
0,
0,
1,
1,
1,
0,
0,
0,
0,
0,
0,
0,
0,
0,
0,
0,
0,
0,
0,
0,
0,
0,
0,
0,
0,
0,
0,
0,
0,
0,
0,
1,
1,
0,
0,
0,
0,
0,
0,
0,
0,
0,
0,
0,
0,
0,
0,
0,
0,
0,
0,
0,
0,
0,
0,
0,
0,
0,
0,
1,
1,
0,
0,
0,
0,
0,
0,
0,
0,
0,
0,
0,
0,
0,
0,
0,
0,
0,
0,
0,
0,
0,
0,
0,
0,
0,
0,
1,
1,
0,
0,
0,
0,
0,
0,
0,
0,
0,
0,
0,
0,
0,
0,
0,
0,
0,
0,
0,
0,
0,
0,
0,
0,
0,
1,
1,
1,
0,
0,
0,
0,
0,
0,
0,
0,
0,
0,
0,
0,
0,
0,
0,
0,
0,
0,
0,
0,
0,
0,
0,
0,
1,
1,
1,
0,
0,
0,
0,
0,
0,
0,
0,
0,
0,
0,
0,
0,
0,
0,
0,
0,
0,
0,
0,
0,
0,
0,
1,
1,
1,
1,
0,
0,
0,
0,
0,
0,
0,
0,
0,
0,
0,
0,
0,
0,
0,
0,
0,
0,
0,
0,
0,
0,
0,
1,
1,
1,
1,
1,
1,
0,
0,
0,
0,
0,
0,
0,
0,
0,
0,
0,
0,
0,
0,
0,
0,
0,
0,
0,
0,
0,
0,
1,
1,
1,
1,
1,
1,
0,
0,
0,
0,
0,
0,
0,
0,
0,
0,
0,
0,
0,
0,
0,
0,
0,
0,
0,
0,
0,
0,
0,
0,
0,
0,
1,
1,
1,
0,
0,
0,
0,
0,
0,
0,
0,
0,
0,
0,
0,
0,
0,
0,
0,
0,
0,
0,
0,
0,
0,
0,
0,
0,
0,
1,
1,
0,
0,
0,
0,
0,
0,
0,
0,
0,
0,
0,
0,
0,
0,
0,
0,
0,
0,
0,
0,
0,
0,
0,
0,
0,
0,
1,
1,
0,
0,
0,
0,
0,
0,
0,
0,
0,
0,
0,
0,
0,
0,
0,
0,
0,
0,
0,
0,
0,
0,
0,
0,
1,
1,
1,
0,
0,
0,
0,
0,
0,
0,
0,
0,
0,
0,
0,
0,
0,
0,
0,
0,
1,
0,
0,
0,
0,
0,
0,
1,
1,
1,
0,
0,
0,
0,
0,
0,
0,
0,
0,
0,
0,
0,
0,
0,
0,
0,
0,
1,
1,
1,
1,
1,
1,
1,
1,
1,
1,
0,
0,
0,
0,
0,
0,
0,
0,
0,
0,
0,
0,
0,
0,
0,
0,
0,
0,
0,
1,
1,
1,
1,
0,
1,
1,
0,
0,
0,
0,
0,
0,
0,
0,
0,
0,
0,
0,
0,
0,
0,
0,
0,
0,
0,
0,
0,
0,
0,
0,
0,
0,
0,
0,
0,
0,
0,
0,
0,
0,
0,
0,
0,
0,
0,
0,
0,
0,
0,
0,
0,
0,
0,
0,
0,
0,
0,
0,
0,
0,
0,
0,
0,
0,
0,
0,
0,
0,
0,
0,
0,
0,
0,
0,
0,
0,
0,
0,
0,
0,
0,
0,
0,
0,
0,
0,
0,
0,
0,
0,
0,
0,
0,
0,
0,
0,
0,
0,
0,
0,
0,
0,
0,
0,
0,
0,
0,
0,
0,
0,
0,
0,
0,
0,
0,
0,
0,
0,
0,
0,
0,
0,
0,
0,
0,
0,
0,
0,
0,
0,
0,
0,
0,
0,
0,
0,
0,
0,
0,
0,
0,
0,
0,
0,
0,
0,
0,
0,
0,
0,
0,
0,
0,
0,
0,
0,
0,
0,
0,
0,
0,
0,
0,
0,
0,
0,
0,
0,
0,
0,
0,
0,
0,
0,
0,
0,
0,
0,
0,
0,
0,
0,
0,
0,
0,
0,
0,
0,
0,
0,
0,
0,
0,
0,
0,
0,
0,
0,
0,
0,
0,
0,
0,
0,
0,
0,
0,
0,
0,
0,
0,
0,
0,
0,
0,
0,
0
};

int16_t weights_fp[NR_WEIGHT] = {
-152,
-685,
-492,
-587,
-481,
-470,
-484,
421,
-617,
-386,
-206,
-55,
-658,
-846,
-175,
-835,
614,
-41,
-63,
-406,
-622,
-920,
-312,
-892,
-541,
72,
45,
-669,
-747,
427,
588,
414,
-939,
-267,
798,
213,
491,
-728,
497,
960,
375,
191,
-241,
466,
230,
-328,
-582,
47,
552,
75,
-416,
-646,
98,
612,
287,
-429,
-831,
-1137,
-763,
396,
916,
678,
-4,
-642,
2,
820,
590,
895,
144,
-455,
-89,
-368,
-841,
-652,
-630,
-695,
-1090,
-1267,
-1005,
-719,
-587,
-12,
7,
7,
307,
442,
706,
1291,
1188,
637,
715,
412,
846,
482,
489,
196,
139,
-119,
116,
584,
263,
-84,
826,
623,
236,
-347,
-54,
-147,
-659,
-618,
-343,
14,
-498,
-386,
388,
-32,
262,
-25,
715,
711,
92,
72,
-390,
636,
614,
-444,
-787,
-183,
1160,
663,
-619,
-582,
-4,
1487,
667,
-1239,
-728,
784,
1605,
-183,
-1524,
-717,
864,
237,
-957,
-1034,
94,
-116,
267,
312,
-339,
-421,
374,
319,
-572,
-486,
-960,
-53,
-891,
-924,
-846,
302,
-781,
-744,
-117,
846,
1069,
242,
1014,
1188,
892,
134,
731,
716,
471,
456,
751,
781,
227,
606,
783,
1124,
-183,
392,
602,
357,
348,
-173,
-192,
-680,
-657,
-935,
-966,
-1087,
-931,
-953,
-849,
-602,
-382,
595,
12,
-218,
-519,
-998,
213,
-262,
-168,
516,
-831,
-358,
-315,
-63,
812,
-244,
-765,
-37,
230,
345,
-316,
-319,
-133,
-260,
366,
151,
-1075,
-1355,
-1015,
438,
1597,
1387,
369,
-195,
-455,
1103,
1946,
1553,
454,
-1484,
-760,
179,
995,
886,
-1149,
-1653,
-1576,
-1198,
-75,
5,
-312,
744,
780,
-732,
-433,
-665,
881,
1042,
-1146,
-1041,
-723,
908,
956,
-736,
-541,
-788,
826,
798,
-604,
-141,
-812,
556,
773,
-214,
-585,
-167,
100,
384,
642,
-284,
-436,
-680,
-950,
-592,
120,
-384,
-210,
-480,
-651,
403,
215,
-36,
56,
119,
343,
645,
804,
582,
119,
476,
396,
-264,
-405,
-305,
629,
544,
-778,
-710,
-212,
631,
-558,
-1514,
-1122,
611,
373,
-1012,
-1381,
-64,
1412,
-502,
-1185,
-611,
1039,
1231,
-1430,
-275,
880,
704,
-38,
-355,
1607,
1198,
-393,
-890,
950,
1388,
-526,
-1399,
-392,
783,
-97,
-1393,
-832,
466,
174,
-772,
-367,
118,
453,
136,
486,
509,
-848,
-1068,
-419,
662,
890,
117,
-462,
-195,
551,
-9,
376,
-305,
271,
215,
-26,
391,
583,
-59,
-400,
-185,
538,
702,
-159,
-517,
765,
540,
-467,
388,
-207,
472,
-467,
-762,
-114,
-570,
-94,
-232,
393,
99,
-243,
-614,
315,
502,
166,
-182,
-418,
485,
-32,
-215,
508,
926,
444,
-755,
527,
-397,
51,
779,
-184,
563,
-657,
-845,
386,
351,
-468,
-147,
-529,
-161,
289,
50,
410,
718,
77,
62,
786,
1214,
1242,
838,
42,
-496,
-513,
-835,
-766,
-1032,
-991,
-801,
-877,
-588,
-691,
-485,
-772,
-984,
-377,
-231,
-372,
184,
749,
711,
295,
-272,
335,
192,
-763,
48,
-866,
-841,
-485,
-980,
-434,
702,
493,
658,
519,
647,
811,
810,
575,
245,
369,
-741,
-768,
-775,
-548,
-302,
-1024,
-693,
-560,
-672,
-378,
6,
-994,
-948,
-1232,
-1283,
958,
768,
137,
-91,
-909,
914,
1128,
1161,
651,
189,
-134,
-70,
215,
409,
518,
51,
-64,
-2,
129,
-60,
-235,
-296,
0,
109,
614,
-704,
-1269,
-111,
1012,
1123,
-791,
-1171,
-533,
827,
1185,
-406,
-550,
-150,
82,
440,
444,
1042,
-241,
-843,
-1275,
-407,
1201,
1185,
-246,
-1648,
-960,
780,
1392,
308,
-1128,
-1357,
182,
1177,
466,
-279,
-878,
-252,
924,
346,
-225,
-666,
-15,
716,
853,
267,
1154,
1629,
1139,
433,
-154,
864,
-75,
-395,
-337,
-310,
-1339,
-1416,
-1278,
-148,
340,
-616,
-253,
417,
81,
295,
-27,
156,
113,
-94,
15,
113,
-33,
26,
-128,
-140,
14,
-21,
-9,
5,
-31,
-44,
-20,
14,
-31,
-9,
24,
-11,
-28,
-52,
-23,
-61,
-5,
-56,
-36,
-61,
-66,
-52,
7,
-24,
12,
-18,
-9,
-32,
-87,
-32,
-38,
14,
-41,
-66,
-123,
37,
-14,
-13,
40,
-91,
44,
-60,
-26,
-70,
-79,
94,
-9,
-41,
-18,
4,
49,
73,
-21,
2,
31,
-18,
-17,
34,
17,
1,
11,
4,
100,
51,
58,
17,
-77,
61,
88,
54,
-35,
28,
15,
25,
128,
118,
64,
12,
98,
93,
142,
103,
40,
28,
-1,
53,
48,
54,
76,
-139,
210,
95,
115,
9,
83,
-68,
14,
-19,
10,
-6,
59,
81,
79,
60,
115,
105,
71,
9,
-19,
-29,
-86,
-44,
-80,
-10,
-26,
38,
22,
-26,
70,
-23,
8,
13,
18,
-12,
-124,
-141,
-28,
-109,
-105,
4,
-15,
10,
-5,
16,
-44,
-122,
-94,
-95,
-154,
-159,
-128,
1,
23,
-4,
-20,
-26,
-28,
-34,
10,
-15,
-64,
4,
-50,
32,
4,
27,
-16,
9,
-22,
-22,
-71,
-16,
32,
2,
61,
0,
-26,
7,
-17,
4,
-1,
-24,
-10,
-27,
23,
162,
96,
32,
68,
26,
-5,
34,
-58,
36,
2,
41,
84,
58,
255,
79,
128,
42,
16,
-8,
49,
19,
74,
62,
65,
1,
39,
26,
95,
44,
26,
-1,
45,
99,
25,
-62,
-34,
-87,
-109,
39,
73,
45,
-40,
-6,
36,
25,
-56,
-60,
-43,
7,
0,
-3,
17,
-5,
24,
22,
46,
-7,
-110,
-135,
50,
-88,
-23,
18,
-46,
-15,
26,
17,
-30,
-36,
-24,
-48,
6,
-87,
10,
-66,
-26,
-2,
-6,
-58,
-75,
-29,
97,
23,
10,
-200,
-86,
-21,
-31,
-4,
-36,
38,
30,
106,
160,
245,
0,
-5,
-94,
-30,
-9,
-42,
-4,
-2,
-34,
-54,
33,
92,
-13,
-35,
-19,
-45,
-15,
-4,
14,
-24,
-42,
-7,
15,
-22,
-8,
-46,
-26,
6,
-33,
11,
16,
-22,
5,
-23,
-36,
-31,
9,
-11,
-85,
-9,
26,
35,
20,
13,
45,
-27,
-151,
12,
35,
50,
83,
-74,
-60,
78,
-2,
13,
26,
109,
-20,
-124,
-107,
-221,
-192,
-30,
-127,
-1,
23,
7,
42,
123,
0,
-33,
-203,
-203,
-229,
-249,
-76,
-21,
22,
56,
-5,
-36,
13,
-152,
-374,
-300,
-197,
-73,
-102,
-4,
0,
-42,
-50,
-53,
-201,
-251,
-148,
-143,
-155,
-76,
-28,
-24,
15,
-37,
-170,
-104,
-106,
-199,
60,
28,
-89,
-71,
-114,
-99,
35,
-88,
-111,
-154,
-98,
-52,
48,
69,
104,
71,
-68,
-53,
-16,
-102,
-190,
-128,
-56,
113,
94,
200,
68,
17,
42,
-15,
0,
-10,
-126,
-140,
-15,
48,
65,
94,
54,
-7,
3,
31,
19,
-2,
-45,
-161,
-125,
-46,
-21,
-71,
-33,
91,
14,
12,
-15,
-21,
-13,
-10,
0,
-39,
50,
39,
0,
-8,
37,
1,
-1,
-4,
-17,
-26,
-19,
-5,
-14,
-88,
-24,
-80,
-24,
-16,
-11,
-16,
24,
-27,
-50,
-88,
-13,
-56,
-46,
-41,
-13,
-32,
15,
-23,
1,
-9,
31,
-16,
-28,
9,
30,
18,
0,
34,
20,
23,
40,
54,
68,
-25,
-14,
-14,
-44,
-37,
-56,
19,
31,
5,
82,
97,
53,
-12,
-30,
-202,
-83,
-7,
84,
38,
18,
21,
86,
53,
11,
-63,
-121,
-60,
-147,
-14,
15,
-3,
7,
40,
30,
-7,
-59,
-27,
-56,
-107,
-59,
46,
11,
-3,
28,
3,
17,
-2,
31,
32,
-152,
-45,
-45,
14,
21,
13,
4,
6,
31,
84,
-14,
18,
-23,
44,
-19,
-9,
19,
-50,
2,
1,
-49,
-87,
-108,
-41,
-16,
-35,
-64,
-30,
-40,
3,
0,
-18,
7,
-2,
32,
18,
43,
21,
5,
-5,
-28,
-2,
-4,
-10,
-7,
-65,
35,
-38,
80,
-93,
-52,
-67,
-15,
-6,
0,
11,
0,
-96,
-110,
-55,
-6,
-110,
-132,
-149,
-70,
-41,
4,
4,
-66,
-161,
-50,
-113,
-87,
-171,
-59,
-137,
-23,
-16,
17,
-12,
-16,
23,
84,
9,
-14,
-10,
-54,
-76,
-64,
71,
4,
-55,
150,
135,
216,
44,
85,
38,
12,
39,
-5,
134,
16,
21,
150,
143,
227,
187,
210,
19,
107,
135,
91,
91,
19,
-7,
166,
186,
183,
287,
72,
-45,
136,
129,
48,
130,
36,
61,
5,
131,
172,
306,
49,
39,
9,
155,
140,
97,
5,
86,
51,
229,
76,
204,
74,
11,
0,
-38,
52,
-28,
-42,
20,
1,
136,
-15,
-23,
-147,
-117,
-51,
-47,
-43,
-69,
-11,
-40,
-2,
-3,
-96,
-271,
-279,
-126,
-161,
-177,
-94,
-73,
-11,
-14,
25,
-50,
-64,
-209,
-259,
-220,
-134,
-190,
-50,
-32,
-24,
-11,
-3,
-35,
-5,
-55,
49,
45,
-28,
9,
18,
1,
3,
-2,
-13,
-10,
-43,
-51,
-11,
-65,
-62,
-19,
-65,
29,
-15,
36,
11,
-62,
40,
-51,
-18,
-147,
-36,
-37,
-5,
-37,
33,
63,
-27,
16,
-61,
-49,
92,
-111,
-113,
-162,
-66,
2,
27,
48,
175,
-8,
-14,
-162,
-182,
-187,
-131,
-76,
-119,
-13,
30,
41,
93,
94,
-11,
-104,
-145,
-238,
-137,
-97,
-31,
16,
11,
19,
-28,
-148,
-37,
-46,
13,
-58,
-43,
34,
7,
-58,
22,
-26,
-81,
-93,
-149,
102,
2,
-50,
-71,
-23,
-11,
-18,
-4,
-57,
-119,
-168,
39,
82,
-12,
112,
36,
35,
-3,
8,
-57,
-54,
-66,
24,
-42,
70,
176,
69,
-13,
73,
-9,
-10,
-20,
-6,
-147,
-60,
-71,
36,
65,
128,
-31,
32,
6,
17,
18,
-13,
-30,
-25,
-7,
-55,
-17,
39,
67,
33,
19,
-4,
19,
37,
64,
-14,
-9,
-13,
40,
61,
34,
5,
22,
9,
-3,
0,
-47,
-24,
-118,
-102,
3,
-80,
-95,
-79,
-41,
36,
12,
-21,
-48,
-62,
-6,
99,
-66,
-63,
-52,
-74,
-80,
-29,
1,
-20,
-40,
-86,
-56,
-76,
-13,
-116,
-200,
-61,
-83,
36,
18,
-16,
67,
0,
-8,
-80,
-120,
-247,
-196,
-205,
-113,
-31,
-48,
-110,
-115,
-82,
-120,
-148,
0,
-175,
-145,
-19,
-31,
-13,
1,
-23,
-71,
-117,
-70,
-48,
-203,
-253,
1,
4,
11,
36,
50,
-14,
-122,
-135,
-140,
-93,
-191,
-76,
-57,
47,
36,
65,
25,
-5,
48,
1,
-154,
33,
-92,
-94,
57,
98,
86,
1,
34,
-59,
-28,
-7,
114,
115,
84,
123,
118,
106,
0,
-13,
-28,
26,
-15,
27,
70,
164,
121,
82,
20,
-74,
-51,
-32,
-14,
32,
-6,
6,
-22,
39,
-28,
-45,
-128,
-50,
-73,
4,
9,
-16,
-11,
-1,
-21,
-32,
-4,
34,
-16,
0,
-22,
9,
7,
18,
12,
-8,
0,
21,
-52,
30,
0,
-3,
-28,
29,
7,
18,
-23,
-1,
49,
-14,
14,
76,
56,
38,
-14,
84,
-6,
-10,
-4,
-46,
8,
50,
100,
84,
171,
39,
-54,
38,
14,
-26,
-51,
-35,
-22,
26,
67,
38,
74,
105,
92,
41,
-15,
-33,
-65,
-20,
42,
74,
163,
176,
-18,
-41,
86,
24,
-7,
-21,
-72,
-97,
-55,
59,
106,
129,
-13,
-49,
43,
-16,
-12,
-21,
-50,
-19,
-43,
44,
39,
36,
49,
3,
-39,
-29,
-3,
0,
-62,
5,
103,
-137,
32,
49,
-45,
-47,
-42,
-48,
14,
5,
-16,
-72,
57,
57,
-37,
-41,
1,
30,
-39,
14,
-1,
1,
-20,
-10,
28,
63,
40,
-45,
-2,
-16,
-60,
11,
0,
-7,
-6,
-21,
-17,
17,
5,
-70,
-37,
20,
9,
-15,
-4,
15,
0,
8,
-43,
83,
5,
-42,
-102,
-1,
13,
38,
5,
-7,
-55,
-77,
-130,
-102,
51,
80,
206,
133,
-24,
14,
-4,
-7,
-55,
-118,
-17,
-24,
-147,
-17,
-51,
116,
236,
26,
6,
-13,
-45,
-62,
83,
151,
116,
116,
248,
222,
132,
90,
6,
-51,
-95,
-114,
-27,
-14,
145,
197,
-111,
118,
37,
14,
18,
-87,
-304,
-347,
-130,
-143,
22,
-149,
19,
24,
35,
-18,
-17,
-99,
-170,
-201,
-173,
-75,
-117,
-45,
-1,
-115,
64,
57,
42,
-38,
-15,
-248,
-142,
-190,
8,
-77,
-139,
-17,
-40,
-22,
9,
56,
-119,
10,
-137,
-42,
-179,
-197,
-111,
-144,
-70,
-18,
6,
-11,
26,
-51,
280,
130,
165,
-147,
-100,
-49,
-94,
-73,
-78,
106,
112,
236,
84,
375,
67,
21,
-139,
-85,
-65,
-84,
31,
-16,
41,
-34,
-39,
-55,
-109,
-120,
-126,
-179,
-59,
-29,
-10,
-22,
-38,
-22,
-30,
0,
-18,
-10,
-56,
9,
3,
7,
-22,
-41,
-95,
-16,
-121,
-73,
-66,
-59,
26,
8,
-26,
-20,
-31,
-27,
-34,
-57,
-126,
-78,
-76,
29,
152,
54,
24,
1,
-10,
-36,
-64,
7,
3,
-22,
-62,
178,
253,
265,
261,
36,
22,
-6,
33,
118,
72,
16,
-75,
221,
229,
172,
291,
69,
4,
87,
111,
90,
146,
34,
-35,
149,
99,
186,
236,
60,
13,
122,
191,
149,
165,
135,
9,
173,
145,
64,
141,
77,
-21,
123,
133,
197,
184,
5,
24,
29,
6,
-81,
-7,
-60,
-19,
79,
27,
123,
219,
-30,
-140,
-73,
-21,
-65,
-9,
-64,
0,
18,
137,
118,
161,
-57,
-224,
-254,
-144,
-166,
-66,
-93,
20,
17,
82,
-24,
-17,
-165,
-241,
-302,
-196,
-77,
-82,
-56,
17,
-2,
10,
7,
-82,
-124,
-170,
-174,
-150,
-53,
-45,
-36,
5,
-22,
-24,
13,
-8,
23,
48,
64,
34,
32,
-10,
-5,
-11,
5,
-4,
-38,
-47,
-29,
-66,
3,
34,
2,
15,
47,
-12,
-7,
-4,
-36,
-30,
-34,
64,
0,
4,
34,
12,
16,
22,
7,
1,
3,
1,
0,
60,
93,
4,
-14,
29,
17,
11,
15,
3,
1,
-27,
-62,
-100,
-170,
7,
-35,
14,
-2,
9,
-27,
-40,
-81,
-33,
-26,
-43,
-149,
-136,
-10,
-22,
7,
-29,
-52,
-97,
-128,
-84,
-39,
-54,
-2,
-27,
-50,
-74,
-53,
6,
-35,
-52,
-136,
6,
38,
-8,
-27,
13,
-65,
-74,
-23,
4,
-29,
3,
-130,
-130,
-33,
-101,
-51,
-1,
-51,
-59,
-3,
-26,
-49,
48,
97,
-8,
39,
113,
52,
27,
15,
-13,
21,
-1,
-20,
-77,
-70,
-13,
50,
4,
-18,
-34,
-47,
13,
17,
-10,
30,
48,
1,
60,
37,
72,
38,
-1,
22,
-18,
21,
-31,
-45,
15,
-6,
-69,
74,
-4,
64,
-14,
52,
-55,
-13,
-17,
-28,
0,
-69,
-116,
-98,
25,
-19,
-120,
-22,
-82,
28,
-37,
11,
-62,
-24,
-89,
-74,
-126,
-66,
-117,
-170,
-104,
-19,
-30,
26,
-96,
-54,
72,
-10,
-13,
-101,
-213,
-19,
-81,
-8,
-33,
124,
21,
77,
0,
-207,
97,
33,
-7,
9,
-55,
-6,
20,
148,
193,
251,
-23,
0,
159,
116,
-9,
32,
93,
-70,
98,
118,
138,
70,
94,
185,
126,
96,
29,
59,
140,
0,
83,
22,
123,
127,
-3,
142,
86,
9,
104,
62,
-67,
87,
-23,
-12,
-26,
-32,
185,
55,
144,
120,
-11,
135,
46,
52,
-32,
-1,
-122,
-64,
-180,
-33,
-116,
70,
64,
115,
-32,
18,
-15,
0,
-202,
-206,
-267,
-104,
-264,
-161,
35,
33,
-34,
-25,
14,
-21,
-41,
-39,
-54,
-68,
-59,
-72,
-44,
-23,
-20,
-32,
4,
-18,
-7,
9,
-51,
-87,
5,
15,
-66,
-31,
-42,
36,
0,
6,
-12,
-103,
-68,
87,
-29,
-21,
-65,
-106,
-84,
-6,
2,
-16,
-29,
-107,
-61,
78,
41,
-76,
-96,
-183,
-100,
-43,
0,
3,
-7,
-16,
-95,
84,
-124,
-102,
-158,
-61,
-100,
-7,
15,
36,
30,
111,
132,
38,
0,
-45,
-227,
-206,
-63,
50,
52,
-9,
72,
249,
127,
155,
112,
26,
-109,
29,
17,
-17,
-2,
-30,
182,
206,
118,
136,
166,
-77,
-80,
-80,
4,
113,
9,
24,
35,
132,
21,
33,
38,
-139,
68,
68,
146,
119,
18,
49,
14,
-15,
-12,
0,
138,
104,
114,
56,
57,
8,
-42,
-18,
-144,
16,
-30,
20,
180,
16,
128,
38,
12,
-29,
-7,
-60,
-41,
-93,
-218,
-133,
-47,
-49,
-43,
-64,
-19,
-33,
5,
15,
26,
-108,
-150,
-56,
-78,
-86,
29,
-131,
-38,
-19,
-23,
-24,
-14,
-23,
-20,
11,
4,
-7,
15,
0,
-35,
-12,
0,
-14,
-18,
-36,
-44,
-58,
53,
26,
15,
-13,
17,
-2,
8,
7,
-63,
14,
-7,
-7,
47,
134,
39,
-5,
92,
-50,
-10,
-7,
-20,
31,
77,
87,
113,
43,
76,
79,
67,
17,
23,
22,
43,
62,
53,
-39,
55,
94,
72,
202,
99,
37,
30,
25,
3,
-6,
78,
-8,
-65,
-106,
68,
173,
106,
34,
20,
-32,
28,
45,
32,
24,
-47,
-133,
56,
11,
94,
44,
18,
-2,
88,
47,
22,
47,
-31,
-97,
-9,
43,
31,
48,
-8,
38,
51,
138,
115,
52,
-74,
-51,
-96,
22,
-8,
2,
-49,
47,
44,
74,
104,
56,
-84,
-45,
-65,
2,
-24,
-9,
-9,
47,
54,
99,
67,
15,
-168,
-98,
-128,
-58,
-62,
-32,
11,
-59,
53,
-9,
64,
-83,
-161,
-125,
-89,
-126,
-29,
-24,
-6,
-21,
14,
-5,
-14,
-13,
9,
8,
2,
22,
-19,
-8,
-14,
-8,
-8,
-19,
16,
2,
-30,
25,
1,
-15,
-18,
13,
13,
25,
-2,
7,
79,
-21,
-5,
-27,
45,
24,
18,
-3,
0,
10,
-44,
-33,
39,
53,
40,
1,
-15,
26,
40,
30,
-5,
-25,
29,
39,
-42,
22,
50,
36,
96,
48,
60,
35,
14,
-21,
71,
44,
4,
49,
27,
45,
-134,
69,
58,
4,
7,
53,
16,
19,
8,
47,
63,
3,
8,
46,
22,
-2,
8,
65,
-15,
66,
35,
86,
17,
-32,
47,
51,
-34,
-19,
29,
-8,
-40,
18,
68,
29,
29,
44,
-102,
-35,
-39,
-3,
-25,
11,
-107,
42,
103,
66,
-17,
-23,
-6,
51,
-12,
-5,
-18,
30,
-13,
-19,
37,
-39,
-23,
-42,
-69,
-8,
-49,
-25,
18,
0,
12,
-40,
0,
-25,
21,
27,
-10,
0,
-14,
-32,
-5,
-18,
12,
-19,
0,
-11,
33,
-2,
7,
20,
6,
15,
16,
-5,
-33,
-18,
-10,
-30,
4,
-37,
-63,
-47,
-37,
18,
15,
-20,
-18,
-49,
-4,
-19,
133,
57,
58,
57,
-34,
-19,
0,
15,
-53,
11,
3,
-1,
50,
105,
113,
41,
65,
7,
-7,
38,
4,
49,
7,
65,
81,
69,
124,
56,
70,
-5,
21,
28,
17,
93,
83,
1,
25,
-29,
-42,
61,
121,
65,
31,
26,
69,
103,
94,
-36,
-66,
-43,
-86,
30,
98,
14,
-17,
7,
141,
47,
-87,
-10,
-28,
-65,
9,
4,
69,
14,
19,
31,
107,
58,
8,
-84,
-168,
-52,
-30,
-23,
-14,
-4,
17,
20,
-4,
76,
93,
2,
9,
5,
-13,
-36,
-48,
5,
5,
34,
14,
-21,
89,
34,
-8,
-119,
-64,
-12,
-62,
-14,
19,
13,
27,
80,
39,
68,
-31,
-28,
-91,
-15,
-48,
-22,
-10,
1,
-10,
57,
-3,
72,
85,
86,
50,
19,
21,
-18,
20,
16,
41,
-11,
-11,
-49,
-5,
27,
-82,
-67,
-53,
21,
5,
8,
16,
-64,
-152,
-124,
-155,
-151,
-142,
-98,
-85,
-15,
-1,
9,
11,
-122,
1,
-26,
-112,
-151,
-125,
-138,
19,
-18,
-9,
-39,
1,
-6,
7,
-212,
-157,
-203,
-293,
-244,
-39,
-41,
17,
-91,
36,
-50,
-102,
-136,
-36,
-197,
-244,
-170,
-72,
-89,
-12,
-45,
-164,
-199,
-46,
-136,
-89,
-3,
-80,
-134,
-43,
-114,
-2,
-42,
-203,
-241,
-135,
30,
-39,
-56,
52,
-53,
10,
-12,
4,
-61,
-131,
-159,
-55,
-63,
-18,
58,
35,
102,
71,
5,
-37,
-71,
-111,
-32,
-61,
180,
144,
97,
144,
57,
38,
25,
20,
2,
-31,
-137,
-77,
-35,
103,
3,
46,
19,
45,
-12,
0,
-1,
64,
74,
21,
75,
130,
170,
89,
60,
-22,
-35,
-12,
13,
-30,
-13,
0,
-24,
44,
-67,
-70,
-50,
-26,
8,
-20,
-2,
19,
0,
-47,
-36,
-30,
20,
-78,
-74,
-53,
-4,
6,
-1,
2,
0,
-7,
-11,
-8,
-85,
-3,
-95,
-30,
1,
10,
5,
21,
55,
39,
-39,
-220,
-140,
-137,
-92,
-38,
-4,
6,
14,
-1,
-25,
29,
-35,
-107,
69,
-43,
-10,
32,
-28,
25,
0,
-55,
-79,
-84,
-151,
-184,
-114,
-33,
-59,
-71,
-63,
-5,
-32,
-67,
-110,
-103,
-139,
-64,
-17,
-55,
-59,
-38,
7,
39,
8,
-10,
-54,
-68,
-56,
-65,
35,
7,
12,
-28,
21,
37,
47,
-14,
-65,
-133,
-134,
-57,
49,
43,
79,
-28,
-22,
17,
16,
-42,
56,
-148,
-157,
-145,
-78,
-56,
-15,
-17,
3,
-2,
-16,
-13,
62,
102,
-55,
-9,
17,
34,
-22,
-19,
-20,
19,
23,
-9,
-38,
-71,
-105,
-88,
-94,
-62,
-6,
-17,
-21,
-17,
-25,
-23,
1,
-3,
38,
15,
-18,
13,
-59,
-15,
-20,
16,
-9,
-44,
-53,
-67,
-46,
63,
84,
-42,
3,
-4,
0,
-3,
15,
-13,
0,
-58,
47,
74,
66,
71,
-74,
28,
66,
33,
6,
53,
60,
-48,
-132,
-58,
-43,
-28,
31,
-63,
-1,
22,
-8,
-10,
-19,
-59,
-43,
-98,
-84,
-41,
-110,
46,
-5,
33,
-81,
-79,
-91,
-95,
-48,
-148,
-61,
-148,
-58,
-58,
-14,
-27,
-112,
-160,
-127,
-145,
-22,
67,
-57,
-133,
-84,
-146,
-25,
1,
-52,
-186,
-98,
-86,
-54,
-34,
21,
-25,
-120,
-104,
-46,
20,
-47,
5,
-167,
-189,
-82,
-70,
-33,
111,
-40,
-58,
-47,
-56,
-36,
-110,
-29,
-162,
55,
-9,
31,
-3,
-19,
-15,
-1,
32,
-59,
-92,
-89,
24,
28,
30,
-2,
26,
-29,
16,
0,
30,
-13,
-17,
-28,
33,
-41,
-38,
-23,
14,
38,
20,
8,
-21,
-17,
-4,
-40,
-45,
10,
-43,
-12,
-19,
55,
-14,
7,
-37,
-39,
-12,
-3,
-98,
-15,
-46,
49,
-49,
30,
-122,
37,
-18,
-18,
-46,
-85,
-47,
-5,
-10,
16,
98,
127,
3,
-32,
-19,
27,
-15,
23,
-141,
113,
59,
26,
143,
94,
107,
-47,
-38,
20,
18,
-13,
74,
47,
142,
72,
224,
144,
87,
-16,
23,
98,
49,
68,
76,
-81,
169,
281,
178,
302,
109,
13,
49,
110,
146,
32,
67,
-61,
110,
133,
163,
168,
117,
-87,
68,
86,
115,
40,
98,
-15,
80,
-46,
127,
132,
48,
24,
56,
46,
110,
86,
113,
-17,
24,
-70,
25,
-38,
-18,
8,
-25,
63,
-52,
-1,
21,
-58,
27,
-129,
-178,
-29,
-55,
37,
-10,
43,
32,
-7,
-46,
-81,
-97,
-145,
-190,
-10,
-48,
19,
-11,
-19,
-76,
-124,
-62,
-51,
-133,
-116,
-33,
-33,
6,
-12,
11,
-10,
-33,
-35,
-76,
-71,
-28,
-32,
-39,
-14,
27,
-17,
16,
-35,
-65,
-71,
-133,
-78,
-12,
-57,
50,
-114,
27,
-40,
6,
-77,
-46,
-79,
-121,
-160,
14,
157,
94,
190,
182,
66,
14,
-81,
-31,
-60,
-39,
-135,
124,
231,
379,
183,
198,
86,
15,
-97,
17,
-95,
102,
-21,
124,
334,
63,
265,
284,
136,
18,
-26,
0,
-9,
117,
81,
92,
-58,
169,
201,
279,
200,
-18,
37,
39,
21,
85,
178,
60,
29,
-24,
-40,
183,
100,
-2,
64,
105,
179,
-15,
65,
-32,
-139,
-206,
13,
128,
52,
-25,
75,
87,
149,
168,
79,
-120,
-173,
-120,
-1,
15,
-75,
-65,
4,
198,
122,
293,
55,
-142,
-270,
-141,
-133,
-75,
-134,
7,
-2,
26,
191,
159,
126,
-154,
-191,
-238,
-247,
-60,
-104,
22,
-32,
29,
76,
103,
-57,
-168,
-192,
-122,
-153,
-15,
-12,
-10,
14,
2,
47,
6,
45,
-38,
47,
84,
55,
11,
26,
22,
0,
-22,
-19,
-7,
-14,
-89,
8,
29,
-60,
-99,
31,
9,
-13,
-23,
-103,
-170,
-29,
8,
-87,
-93,
-47,
-49,
-55,
-4,
-23,
-17,
21,
-84,
6,
-155,
72,
34,
14,
-25,
17,
6,
58,
-8,
88,
0,
-26,
-11,
85,
-116,
-136,
-173,
-72,
38,
-3,
6,
30,
-79,
-90,
-6,
-32,
-179,
-40,
16,
-46,
52,
32,
84,
42,
-79,
-121,
-35,
-252,
-208,
38,
20,
21,
15,
41,
38,
12,
-47,
-215,
-80,
-170,
-35,
77,
14,
12,
0,
26,
-47,
67,
132,
-47,
-161,
5,
18,
-3,
40,
26,
-5,
30,
-100,
60,
154,
140,
128,
-27,
0,
19,
-1,
-45,
7,
-24,
-10,
-81,
39,
60,
5,
-14,
-118,
-27,
-60,
-30,
-13,
1,
20,
-4,
16,
49,
47,
-43,
-24,
-85,
-71,
-19,
-19,
8,
-36,
-47,
-22,
2,
27,
106,
85,
12,
8,
0,
-6,
7,
-9,
-110,
-8,
34,
112,
117,
100,
132,
18,
-13,
5,
-14,
-57,
-68,
-54,
20,
3,
112,
177,
128,
9,
-24,
-13,
-18,
-35,
-34,
-14,
-60,
-16,
30,
9,
123,
-12,
-22,
-31,
-1,
23,
-13,
-22,
12,
-94,
-10,
56,
55,
-24,
-25,
13,
1,
-28,
75,
82,
55,
191,
12,
31,
78,
-25,
11,
10,
-22,
-36,
1,
34,
160,
97,
53,
63,
42,
-2,
-3,
1,
-48,
6,
-2,
37,
70,
-50,
41,
78,
4,
-5,
24,
-13,
-29,
49,
-45,
77,
0,
-106,
-82,
-12,
4,
-6,
3,
4,
58,
85,
68,
63,
20,
3,
-98,
-21,
21,
-22,
-9,
11,
35,
45,
54,
184,
112,
-65,
-96,
-59,
-13,
-7,
-15,
-21,
-12,
-4,
85,
-48,
-20,
5,
-36,
38,
-14,
-9,
-10,
-19,
-44,
-5,
-32,
-54,
-35,
-44,
-17,
-7,
-44,
0,
-6,
-30,
4,
-29,
-18,
-35,
9,
9,
-25,
48,
-24,
-20,
-11,
-14,
-7,
-47,
-83,
49,
-65,
-120,
-48,
-66,
-42,
-83,
-26,
-27,
-25,
29,
-37,
-54,
-35,
-50,
-178,
-110,
-64,
-7,
-45,
-22,
-66,
-45,
-8,
-45,
8,
-88,
-120,
-34,
-52,
-60,
-57,
-21,
-24,
2,
-75,
-83,
-69,
-103,
-59,
-58,
-26,
-31,
-46,
-56,
-73,
-37,
-71,
-152,
-89,
-148,
-136,
-115,
2,
-50,
-24,
-52,
-39,
-100,
-86,
-216,
-43,
-191,
-100,
-52,
-8,
2,
-6,
-40,
18,
-8,
-58,
-170,
-183,
-42,
-46,
-26,
69,
48,
-20,
28,
17,
-24,
-46,
-87,
-145,
-132,
15,
48,
-55,
26,
-25,
-42,
27,
-46,
-126,
-227,
-171,
-111,
-55,
-27,
-6,
13,
-5,
-26,
-39,
-2,
-41,
-14,
-38,
-117,
-64,
40,
10,
-9,
-41,
-2,
-33,
-5,
-42,
-23,
-32,
-17,
30,
11,
24,
-31,
-29,
-26,
5,
-17,
-50,
-105,
-84,
-56,
-68,
22,
53,
29,
-43,
-23,
-39,
-106,
-84,
-199,
-97,
-57,
-77,
-98,
-31,
-24,
-102,
0,
-34,
-35,
-17,
-58,
-85,
-66,
-118,
-65,
-58,
-51,
-55,
-45,
-50,
-64,
-79,
-113,
62,
-111,
64,
-188,
-69,
-20,
-17,
-21,
-4,
21,
57,
26,
-173,
-126,
-126,
-216,
-162,
-76,
-28,
-9,
-56,
-40,
27,
-12,
-174,
-181,
-308,
-165,
3,
-53,
9,
-26,
-27,
2,
25,
-104,
-192,
-345,
-188,
-147,
67,
80,
47,
-33,
19,
120,
80,
135,
75,
-105,
-40,
-33,
71,
92,
82,
18,
116,
107,
15,
-56,
-22,
3,
-74,
70,
74,
-27,
-96,
-2,
24,
20,
65,
33,
-101,
-163,
-10,
20,
26,
-19,
-35,
-17,
-29,
1,
-37,
-104,
-94,
18,
-33,
-63,
-51,
-18,
3,
-6,
-34,
-21,
-51,
0,
-35,
-21,
47,
26,
55,
-15,
-43,
-5,
2,
-42,
-51,
-89,
-66,
-61,
-30,
3,
1,
-34,
-67,
-18,
-17,
-20,
16,
-93,
-75,
-35,
-136,
-96,
-77,
-33,
-78,
-46,
-44,
-56,
-101,
0,
-65,
-27,
-78,
-107,
-28,
-39,
-64,
-45,
-43,
-41,
-4,
55,
2,
-5,
-93,
-121,
-86,
-74,
-34,
-24,
-30,
-43,
-1,
7,
-68,
-74,
-115,
-109,
-15,
-36,
-43,
-31,
-22,
-36,
18,
3,
-111,
-155,
-96,
-50,
-40,
-44,
-7,
-16,
-37,
-9,
9,
-12,
-177,
-52,
7,
-88,
-69,
-32,
-15,
-11,
13,
64,
-15,
-104,
-130,
3,
38,
59,
33,
30,
9,
-30,
21,
69,
-3,
-46,
-135,
-14,
-4,
53,
46,
-25,
-11,
-14,
0,
-4,
-5,
-30,
-132,
-119,
-45,
-30,
50,
24,
-30,
-25,
-3,
-5,
-2,
-22,
-10,
-12,
-6,
36,
-13,
-16,
-20,
-24,
-28,
-28,
0,
63,
79,
142,
130,
92,
99,
-23,
-33,
-3,
-75,
-3,
5,
4,
118,
116,
147,
168,
222,
77,
-40,
-8,
-29,
-3,
-69,
-7,
-121,
108,
42,
51,
162,
141,
-31,
-15,
49,
-50,
-69,
-129,
-228,
-208,
-53,
-41,
36,
84,
-52,
-30,
66,
-35,
-77,
-98,
-133,
200,
11,
2,
15,
17,
-40,
-63,
34,
70,
-95,
-82,
88,
185,
227,
91,
-9,
-41,
-41,
-37,
29,
-17,
28,
-75,
174,
111,
170,
63,
-13,
-51,
-47,
-30,
-2,
-35,
40,
-84,
12,
162,
76,
-53,
42,
-65,
10,
-22,
2,
-99,
-83,
-66,
-110,
-1,
-227,
-60,
-106,
-33,
32,
-42,
-24,
51,
-57,
26,
-183,
-283,
-278,
-162,
-84,
-9,
5,
-49,
51,
89,
-25,
144,
154,
-102,
-180,
52,
-30,
-36,
-26,
-22,
-38,
-10,
100,
55,
10,
21,
23,
63,
32,
-16,
-57,
-23,
-6,
0,
-27,
2,
-70,
45,
95,
25,
52,
10,
-31,
-11,
-23,
-64,
-24,
-155,
-70,
-114,
-16,
90,
78,
3,
-44,
-27,
-42,
-71,
-72,
-144,
-172,
-57,
0,
30,
38,
-80,
-69,
-30,
-38,
-40,
6,
-41,
6,
-20,
-76,
-80,
20,
-42,
-31,
-13,
-15,
-66,
3,
127,
-51,
-15,
-168,
-43,
-57,
-45,
-28,
-21,
-61,
26,
47,
38,
16,
-176,
-197,
-100,
-62,
-15,
-25,
-54,
-39,
53,
80,
15,
-43,
-173,
-80,
-13,
-16,
-2,
0,
-12,
-23,
83,
9,
-142,
-223,
-158,
45,
13,
83,
51,
15,
-11,
165,
178,
93,
-128,
-109,
27,
70,
120,
157,
61,
-8,
12,
41,
112,
-59,
-168,
-149,
-260,
-105,
-97,
-57,
-20,
-21,
-57,
-62,
-14,
76,
-82,
-252,
-81,
-88,
-71,
7,
-4,
-14,
-38,
0,
-20,
-82,
27,
57,
-36,
-25,
-24,
-26,
4,
-8,
-8,
-39,
-31,
-47,
-49,
-84,
-81,
-18,
-55,
-8,
-22,
0,
-20,
-39,
-6,
11,
-194,
-185,
-125,
-90,
39,
-25,
-54,
-28,
-35,
-10,
-34,
-79,
-98,
-229,
-177,
-117,
-117,
-29,
-58,
-57,
-28,
-17,
-20,
53,
-177,
-20,
-170,
-64,
-110,
-88,
-70,
-66,
-33,
-24,
-48,
-60,
-78,
-270,
-107,
-31,
-74,
-58,
-23,
-43,
-25,
-20,
-13,
81,
-171,
-98,
-182,
-92,
-65,
-20,
-39,
-53,
-19,
-23,
51,
2,
-164,
-72,
17,
-89,
-104,
-2,
-16,
-50,
0,
-28,
32,
-85,
-63,
-173,
-69,
-27,
-56,
-14,
18,
-59,
-43,
-50,
73,
61,
-86,
-123,
-128,
-21,
-66,
-38,
-14,
-33,
-72,
-52,
36,
-30,
-43,
-120,
-54,
4,
0,
26,
58,
41,
36,
71,
14,
44,
-17,
12,
37,
73,
116,
60,
66,
-11,
-12,
0,
31,
-8,
16,
-35,
-66,
20,
-15,
-10,
-32,
-39,
21,
40,
30,
36,
46,
32,
119,
61,
58,
85,
20,
28,
17,
27,
38,
65,
48,
92,
41,
121,
81,
19,
49,
30,
11,
28,
29,
64,
20,
86,
-25,
43,
20,
-74,
-1,
18,
5,
27,
75,
-12,
57,
-33,
-27,
4,
-24,
-20,
-2,
31,
34,
22,
69,
54,
6,
-38,
-68,
41,
-30,
12,
29,
21,
31,
31,
65,
60,
73,
-66,
-62,
1,
15,
-38,
-12,
21,
35,
42,
29,
59,
53,
-134,
-59,
37,
41,
34,
27,
11,
5,
51,
24,
50,
13,
-21,
-70,
22,
-30,
76,
40,
21,
18,
43,
1,
5,
-24,
-35,
-1,
-90,
2,
65,
19,
21,
33,
37,
24,
3,
-30,
-35,
-14,
-27,
-63,
15,
21,
9,
37,
14,
-6,
-4,
4,
10,
114,
-18,
74,
75,
93,
59,
8,
20,
55,
32,
58,
66,
73,
73,
-10,
19,
26,
24,
-28,
-35,
-27,
-4,
-65,
-117,
-276,
-149,
-129,
-43,
21,
-11,
-11,
32,
61,
170,
67,
-214,
-128,
-294,
-270,
-104,
-95,
-40,
-19,
51,
9,
-1,
-10,
-245,
-313,
-381,
-221,
-110,
-192,
-168,
-19,
-9,
146,
95,
-16,
-222,
-213,
-222,
-189,
-154,
-18,
-106,
-23,
-99,
-36,
22,
-31,
-164,
-342,
-181,
31,
18,
-46,
-37,
-11,
-8,
25,
-38,
-214,
-425,
-368,
-189,
-181,
2,
6,
-42,
-30,
-62,
-33,
-62,
-286,
-463,
-298,
-209,
-204,
-54,
-15,
-22,
-45,
-61,
-31,
-87,
-209,
-85,
-121,
-95,
-32,
0,
68,
10,
-46,
-42,
29,
-19,
-183,
-254,
-110,
-10,
57,
223,
126,
4,
73,
113,
219,
44,
37,
-100,
-109,
196,
352,
171,
88,
123,
16,
168,
32,
-50,
-67,
-75,
51,
37,
91,
100,
-34,
-5,
-30,
-104,
-14,
-51,
24,
-34,
-60,
57,
92,
65,
-10,
-42,
-34,
5,
-19,
43,
12,
78,
-20,
0,
39,
-27,
14,
-35,
-27,
-10,
9,
-17,
63,
91,
11,
4,
88,
48,
18,
-47,
-10,
38,
77,
-57,
136,
-22,
-24,
15,
-12,
76,
-51,
-42,
-35,
2,
59,
-117,
-35,
-198,
-111,
-47,
-63,
-4,
-32,
-72,
-19,
-23,
-26,
-98,
-225,
-210,
-98,
-47,
46,
-11,
-81,
-59,
22,
-26,
-63,
-87,
-188,
-2,
46,
121,
45,
28,
-61,
-47,
-19,
-6,
-104,
-62,
-98,
148,
174,
136,
-106,
-19,
-41,
0,
-37,
-72,
-96,
-45,
-56,
169,
38,
-11,
-41,
-78,
-23,
13,
-6,
-66,
-78,
-42,
-7,
-34,
10,
-58,
-20,
-33,
-20,
23,
5,
-54,
-83,
77,
36,
26,
-15,
-80,
58,
31,
2,
20,
12,
-38,
-22,
78,
45,
-2,
-3,
-106,
-4,
67,
10,
23,
-10,
-19,
2,
99,
-41,
-6,
-12,
0,
0,
1,
-50,
-9,
2,
0,
3,
-21,
-34,
-25,
-32,
-25,
-15,
-10,
19,
2,
15,
18,
-1,
3,
-32,
-110,
-100,
-77,
-15,
-2,
34,
-16,
9,
-6,
34,
27,
-155,
-94,
-140,
-81,
-35,
-61,
-6,
-35,
-17,
-15,
-10,
85,
-3,
-86,
-82,
-134,
-51,
-68,
-43,
-16,
-11,
7,
5,
-5,
0,
-66,
4,
-75,
-39,
-24,
-12,
-15,
-36,
0,
-17,
47,
-153,
-235,
-120,
-63,
-131,
-66,
-57,
-28,
-1,
-4,
15,
-17,
-99,
-242,
-71,
-55,
-44,
26,
12,
-14,
-23,
-7,
61,
-22,
-110,
-117,
-46,
-27,
-10,
31,
51,
25,
12,
71,
87,
53,
0,
3,
-8,
88,
64,
137,
60,
15,
28,
46,
49,
-55,
-117,
-100,
-56,
-78,
-71,
-30,
-25,
-23,
-11,
-57,
-34,
14,
-30,
-59,
-58,
-13,
18,
44,
22,
3,
3,
5,
-6,
3,
-18,
-3,
59,
-8,
-40,
-39,
5,
-11,
8,
-4,
-23,
31,
98,
189,
228,
221,
183,
47,
17,
-2,
27,
-4,
-123,
-46,
39,
70,
222,
257,
180,
192,
-12,
29,
-29,
24,
-139,
-55,
-176,
11,
7,
226,
251,
91,
52,
33,
-41,
-53,
-34,
-95,
-148,
-69,
93,
-103,
29,
65,
62,
-3,
0,
-42,
0,
-2,
-35,
146,
-37,
-126,
34,
5,
32,
23,
22,
-33,
70,
76,
89,
296,
60,
-29,
210,
44,
22,
-19,
-38,
-47,
86,
104,
137,
50,
164,
92,
108,
36,
46,
-13,
-51,
22,
110,
-89,
-55,
-70,
20,
86,
-63,
-21,
59,
-53,
-9,
98,
28,
-34,
-134,
-154,
-208,
-70,
-35,
30,
-46,
-14,
25,
23,
80,
111,
60,
-4,
-327,
-121,
-50,
-115,
20,
2,
-41,
7,
164,
129,
180,
-190,
-78,
-45,
-43,
23,
24,
25,
-7,
0,
22,
-57,
87,
-29,
-29,
30,
-6,
2,
23,
-9,
-34,
-14,
-19,
-25,
22,
-23,
92,
114,
95,
85,
-30,
-21,
-5,
-17,
-23,
5,
-22,
17,
116,
255,
194,
166,
39,
-17,
-44,
-44,
7,
-92,
-142,
-15,
-3,
-95,
5,
153,
47,
-54,
-49,
-2,
-35,
-157,
-86,
-182,
-187,
-242,
-109,
101,
82,
-69,
-30,
-16,
-15,
52,
-150,
74,
-94,
-303,
-153,
51,
50,
-36,
-27,
14,
67,
59,
116,
121,
-39,
-71,
-30,
8,
-29,
-53,
-18,
5,
4,
74,
117,
51,
-128,
-18,
53,
-13,
-66,
-36,
-29,
16,
-13,
68,
-122,
-74,
-191,
-118,
-75,
58,
-15,
-25,
-18,
1,
-90,
-157,
-94,
-252,
-125,
-192,
-42,
-25,
10,
57,
-34,
11,
33,
-46,
-140,
-247,
-387,
-229,
-116,
-64,
-8,
32,
-25,
45,
130,
-66,
63,
-306,
-361,
-211,
-177,
-95,
1,
-61,
7,
13,
7,
80,
19,
-97,
-110,
-112,
16,
-32,
-45,
-41,
-46,
-19,
-42,
-29,
-27,
6,
20,
-10,
11,
0,
-23,
-53,
-33,
-2,
-40,
-43,
-67,
-94,
-50,
-92,
5,
26,
-49,
-38,
-42,
18,
-58,
-12,
-56,
-59,
-60,
-72,
-61,
10,
-39,
-43,
-21,
-48,
42,
-68,
-44,
-147,
-62,
-74,
-30,
-18,
-25,
-96,
-43,
-38,
11,
-99,
-93,
-52,
-129,
-41,
-22,
-38,
-19,
-46,
-51,
-22,
-32,
-89,
-128,
-124,
-49,
-46,
-16,
-47,
-56,
-60,
-56,
-45,
-64,
-87,
-212,
-135,
47,
58,
-72,
-53,
-42,
-29,
-42,
-49,
-31,
-170,
-222,
-126,
53,
35,
-88,
-48,
-20,
-6,
-52,
-15,
-127,
-83,
-131,
-128,
140,
-55,
-1,
-34,
-25,
14,
-2,
-67,
-68,
-147,
-106,
-73,
-34,
15,
-7,
-26,
-24,
-2,
-43,
15,
-51,
-124,
-97,
-42,
-66,
-95,
26,
-19,
-33,
-4,
-51,
-34,
7,
-34,
-20,
-54,
-10,
-33,
-11,
11,
-26,
-33,
7,
-7,
9,
29,
25,
29,
81,
92,
51,
0,
-4,
-13,
12,
11,
-38,
32,
54,
57,
38,
30,
36,
28,
13,
0,
-7,
13,
-23,
-19,
-40,
9,
-91,
0,
-2,
-48,
-32,
-13,
-8,
-14,
19,
-36,
39,
-137,
-38,
-12,
11,
40,
-7,
-11,
-26,
-5,
0,
-8,
0,
11,
-159,
-13,
42,
0,
-1,
-11,
-5,
-17,
45,
32,
67,
-56,
-175,
-119,
7,
-35,
1,
8,
-23,
15,
31,
25,
-17,
-126,
-118,
50,
21,
-7,
-12,
-25,
0,
-4,
9,
0,
-103,
-123,
-88,
-42,
-2,
18,
-11,
-13,
8,
3,
-32,
-18,
-169,
-143,
-46,
-48,
-6,
51,
17,
-3,
5,
-23,
1,
-37,
-141,
-86,
-127,
-68,
-35,
-17,
-11,
-4,
-18,
-26,
2,
-49,
-66,
-84,
38,
-69,
-46,
4,
18,
18,
-12,
45,
12,
35,
-44,
29,
-43,
-7,
29,
3,
14,
-9,
-27,
-19,
-25,
-55,
-18,
-3,
-19,
18,
-19,
19,
-16,
-44,
-35,
-41,
-58,
-4,
-116,
-25,
-57,
-89,
-43,
-15,
-28,
-72,
-30,
-1,
-65,
22,
-74,
-39,
-115,
-68,
-52,
-34,
-29,
-58,
-40,
0,
-33,
-62,
-10,
-65,
-78,
-129,
-85,
-12,
-88,
-77,
-34,
-68,
-8,
-36,
-14,
-96,
-126,
-62,
-85,
-94,
-84,
-64,
-14,
-50,
-82,
-40,
-37,
28,
-144,
-132,
-61,
-49,
-68,
-65,
-36,
-56,
-21,
-91,
-61,
-88,
-144,
-35,
-44,
-85,
-39,
-21,
-35,
-68,
-40,
-76,
-100,
-120,
-129,
-7,
-128,
-45,
-17,
-28,
-30,
-12,
-11,
-52,
-134,
-132,
-109,
-52,
-26,
-14,
-19,
-37,
-40,
-58,
-61,
-62,
-159,
-146,
-150,
-59,
18,
24,
21,
-28,
-3,
-24,
-13,
-60,
-23,
-104,
-186,
10,
-13,
38,
14,
-22,
-52,
8,
-44,
-63,
15,
-71,
22,
-60,
-34,
-8,
-75,
-48,
34,
62,
41,
34,
0,
16,
89,
90,
62,
63,
54,
38,
27,
39,
38,
-20,
-11,
-63,
-130,
7,
17,
20,
3,
12,
35,
18,
51,
57,
-123,
-139,
-139,
-124,
-33,
58,
14,
32,
10,
9,
25,
-7,
54,
-99,
-5,
-55,
-109,
55,
-2,
-4,
20,
24,
76,
126,
103,
60,
54,
-4,
-128,
-57,
15,
23,
37,
14,
68,
135,
124,
21,
-262,
-75,
58,
50,
38,
55,
19,
48,
77,
173,
98,
-109,
-237,
-5,
-11,
66,
55,
24,
36,
50,
119,
215,
-5,
-76,
63,
30,
-6,
42,
37,
21,
73,
148,
140,
145,
-6,
132,
-17,
25,
59,
138,
51,
17,
31,
69,
182,
291,
182,
8,
-144,
14,
46,
48,
29,
9,
21,
7,
125,
181,
68,
-88,
47,
20,
35,
50,
104,
116,
51,
144,
90,
115,
-7,
-48,
11,
67,
71,
66,
23,
4,
5,
6,
4,
-15,
-69,
-136,
-167,
-139,
-30,
-7,
-14,
9,
7,
32,
32,
-6,
-108,
-100,
-126,
-98,
-102,
-48,
34,
3,
-10,
16,
-20,
-53,
-84,
-44,
-62,
-146,
-119,
-3,
-3,
-47,
-16,
5,
13,
81,
9,
-95,
-107,
-131,
-96,
-98,
-32,
-19,
10,
6,
-51,
-80,
-49,
-152,
-121,
-144,
-43,
-7,
3,
5,
23,
-3,
24,
58,
-49,
-160,
-160,
-143,
-67,
-55,
-34,
0,
-7,
8,
27,
-4,
-61,
-98,
-120,
-113,
-110,
-29,
-9,
-1,
17,
4,
32,
7,
-74,
-26,
-6,
109,
-17,
73,
25,
13,
14,
57,
96,
82,
57,
-2,
17,
-27,
6,
30,
63,
53,
49,
79,
144,
108,
115,
24,
25,
25,
156,
158,
74,
21,
-17,
30,
52,
67,
75,
68,
14,
43,
116,
74,
30,
-8,
15,
6,
-4,
-49,
17,
39,
40,
-5,
-17,
0,
1,
24,
11,
18,
-22,
9,
-18,
-13,
-13,
-81,
-5,
41,
6,
-11,
9,
50,
37,
42,
-84,
-92,
-55,
-38,
-45,
13,
25,
-35,
19,
-42,
79,
-66,
-128,
-64,
-77,
-170,
-123,
-47,
2,
-60,
-14,
-1,
62,
89,
-16,
-78,
-65,
-141,
-136,
-62,
0,
-7,
-11,
20,
-47,
-104,
-94,
-109,
-49,
-161,
-151,
-16,
22,
4,
-9,
8,
72,
19,
-180,
-182,
-90,
-128,
-143,
-92,
6,
0,
-1,
3,
-29,
-19,
-207,
-246,
-168,
-160,
-119,
-7,
20,
39,
7,
17,
36,
-49,
-196,
-349,
-69,
-47,
-41,
93,
80,
49,
21,
30,
27,
123,
45,
-26,
-36,
-61,
-49,
28,
66,
80,
71,
45,
3,
-24,
-65,
114,
11,
-37,
81,
113,
75,
-1,
-37,
-81,
60,
63,
79,
68,
42,
107,
106,
107,
52,
-41,
23,
23,
4,
-5,
-56,
96,
42,
-36,
-38,
0,
21,
-5,
-16,
-38,
-37,
-23,
61,
99,
43,
66,
68,
-20,
-1,
-38,
2,
-10,
-96,
91,
114,
221,
86,
170,
144,
9,
-46,
-32,
-19,
9,
-89,
-44,
97,
56,
-3,
140,
6,
27,
-73,
-8,
-62,
33,
-24,
-42,
-120,
108,
-34,
181,
-38,
-3,
-38,
-37,
-43,
-38,
-44,
-59,
-32,
23,
179,
95,
-24,
-71,
-67,
-32,
6,
-77,
-14,
-32,
-32,
326,
133,
132,
63,
-26,
-36,
-29,
-22,
-92,
-24,
23,
33,
261,
84,
12,
33,
-8,
-6,
-22,
-61,
-119,
-39,
-2,
18,
181,
136,
-16,
-53,
-25,
3,
-30,
-89,
-51,
-9,
-120,
-132,
53,
-15,
-81,
-136,
-57,
19,
-20,
10,
38,
-39,
-120,
-44,
-58,
-160,
-104,
-75,
-31,
10,
-19,
12,
4,
3,
54,
-55,
107,
-25,
42,
60,
-66,
3,
-33,
-49,
-48,
31,
-65,
-18,
-13,
-40,
5,
7,
-24,
-29,
-10,
-35,
-25,
-36,
10,
12,
161,
141,
91,
71,
30,
-23,
-29,
-49,
-10,
70,
9,
179,
145,
241,
91,
78,
47,
-15,
-60,
-15,
0,
91,
-54,
222,
92,
67,
-62,
-35,
-90,
-78,
-94,
-57,
-14,
95,
-86,
14,
-21,
-44,
4,
-137,
-121,
-12,
-119,
-50,
29,
-65,
-147,
-147,
-121,
-8,
41,
-63,
-16,
-21,
-50,
-38,
19,
-68,
-221,
-332,
-139,
231,
73,
-165,
49,
-50,
-54,
-12,
-8,
-139,
-96,
-243,
45,
176,
25,
-56,
-28,
-57,
-3,
-17,
-70,
-157,
-56,
-104,
-34,
217,
-88,
-37,
-117,
-44,
6,
-9,
-121,
-151,
-46,
-51,
-54,
75,
-128,
-8,
8,
-16,
21,
7,
-145,
-86,
-39,
-138,
-36,
-69,
-37,
138,
87,
-49,
56,
-44,
9,
58,
-31,
-103,
0,
108,
-78,
81,
87,
-29,
32,
-24,
-39,
-33,
60,
-53,
104,
-41,
18,
1,
19,
-16,
-75,
-17,
-42,
-56,
-56,
-24,
74,
0,
36,
22,
6,
-9,
-32,
-34,
-23,
-109,
-85,
-111,
-259,
-73,
-108,
-76,
23,
-58,
-71,
-31,
2,
-41,
-43,
-55,
-78,
-220,
-258,
-254,
-21,
-83,
-135,
-62,
-52,
-84,
-91,
-47,
5,
41,
-116,
-238,
-99,
-55,
-101,
-58,
-86,
-59,
43,
-49,
65,
-209,
-120,
-216,
-137,
-99,
-54,
-53,
-71,
-47,
-15,
12,
-72,
-121,
-243,
-144,
23,
-25,
-59,
-46,
-37,
4,
20,
24,
-199,
-168,
-202,
-97,
-71,
-2,
-55,
-50,
-76,
-7,
-72,
-111,
-147,
-279,
-225,
-271,
-56,
5,
-19,
-42,
-18,
-20,
-94,
-98,
-253,
-256,
-138,
-223,
-17,
-10,
-37,
-21,
-35,
-72,
-18,
-159,
24,
-82,
-92,
86,
-58,
45,
36,
-7,
69,
76,
-75,
5,
-199,
-95,
28,
1,
58,
9,
-17,
-9,
-9,
-54,
12,
-7,
-11,
50,
-108,
27,
-4,
-56,
-68,
-4,
-39,
11,
68,
26,
-1,
-11,
-130,
-119,
-82,
-4,
5,
-6,
-17,
-1,
46,
-38,
-165,
-66,
-75,
-179,
-113,
-40,
-6,
-3,
65,
30,
24,
30,
-2,
-59,
-84,
-117,
-129,
24,
17,
25,
104,
62,
42,
-45,
-148,
-186,
10,
-128,
6,
5,
13,
20,
35,
63,
-120,
-124,
-73,
1,
-31,
48,
143,
98,
99,
-50,
8,
124,
-15,
-189,
-118,
-103,
63,
102,
246,
191,
90,
-18,
30,
93,
13,
57,
37,
88,
137,
89,
118,
71,
52,
26,
35,
-25,
-35,
172,
106,
13,
127,
159,
-18,
-82,
11,
110,
24,
-27,
71,
74,
38,
40,
121,
11,
37,
-12,
-53,
77,
37,
54,
-1,
112,
-49,
-16,
-160,
-109,
-137,
-119,
0,
-11,
-34,
49,
10,
-12,
-45,
-62,
-182,
-175,
-114,
-63,
-22,
-36,
-23,
-41,
-194,
-123,
-77,
-173,
-277,
-88,
-39,
-35,
2,
-48,
-27,
-27,
61,
0,
44,
10,
-17,
-77,
-18,
-29,
-21,
-44,
-2,
14,
70,
-49,
15,
136,
98,
12,
-28,
-81,
-37,
-18,
16,
37,
108,
43,
144,
143,
42,
-46,
-131,
-94,
-24,
-72,
-58,
-153,
17,
-137,
-21,
65,
109,
50,
-115,
-25,
-72,
-23,
48,
-71,
-160,
-18,
-80,
-3,
-28,
33,
-61,
-30,
-27,
-17,
14,
101,
50,
46,
-34,
-71,
56,
-68,
22,
-18,
-23,
20,
44,
-13,
92,
13,
23,
-66,
-43,
-18,
6,
12,
71,
-63,
-4,
47,
69,
137,
54,
0,
-90,
-143,
3,
-16,
122,
-18,
7,
117,
121,
3,
182,
-17,
-82,
-31,
108,
53,
10,
14,
-66,
-41,
30,
-55,
0,
-7,
128,
156,
120,
91,
58,
-73,
-76,
-86,
35,
62,
28,
54,
186,
119,
105,
13,
26,
-44,
-72,
-94,
-29,
-2,
-8,
-66,
2,
10,
18,
27,
-44,
-41,
-34,
-14,
51,
76,
108,
15,
-95,
-111,
-82,
-67,
-42,
-27,
-10,
-7,
20,
4,
-16,
28,
-17,
65,
-48,
-88,
-70,
-15,
2,
21,
85,
91,
214,
95,
-65,
-141,
-205,
-170,
-46,
-32,
-20,
-38,
21,
-56,
-16,
-59,
-25,
-157,
-223,
-162,
1,
-76,
44,
188,
135,
265,
122,
132,
-64,
-99,
-144,
-93,
47,
-21,
143,
278,
335,
229,
244,
162,
54,
-4,
17,
52,
103,
9,
159,
323,
421,
271,
21,
16,
-63,
72,
41,
188,
136,
6,
108,
110,
78,
29,
168,
144,
28,
-8,
15,
200,
182,
27,
54,
2,
-8,
-117,
-170,
156,
168,
81,
208,
264,
102,
12,
-15,
-129,
-70,
32,
83,
117,
32,
226,
148,
180,
101,
-86,
-129,
-262,
-25,
-16,
17,
-6,
104,
-10,
91,
64,
-36,
-74,
-55,
-131,
-98,
-107,
-78,
-34,
24,
50,
73,
19,
-6,
-42,
-9,
-18,
-37,
-47,
-3,
-49,
-9,
-36,
-13,
-24,
-30,
-16,
-28,
-27,
-25,
-18,
16,
-45,
4,
30,
-6,
-38,
-79,
-24,
-28,
-42,
0,
68,
-55,
-33,
-52,
-48,
25,
-5,
-45,
-21,
-16,
-10,
-26,
-98,
-64,
-60,
-112,
-59,
-1,
-69,
-11,
-39,
-22,
32,
-23,
-169,
31,
-35,
-26,
3,
-56,
0,
50,
-39,
-9,
44,
45,
-40,
-36,
-16,
-31,
-82,
-34,
25,
73,
-39,
-5,
42,
51,
78,
60,
-96,
-109,
-5,
10,
106,
154,
1,
14,
39,
78,
94,
-26,
27,
-18,
77,
-21,
113,
107,
19,
-6,
0,
-2,
57,
91,
68,
73,
-9,
42,
39,
116,
-14,
12,
5,
-15,
45,
92,
112,
77,
75,
-102,
42,
95,
-17,
27,
-22,
-28,
99,
22,
61,
4,
-14,
-19,
-6,
35,
-22,
-19,
-22,
-21,
29,
28,
-41,
-69,
32,
24,
34,
-17,
-34,
-6,
-40,
-80,
-53,
-61,
-119,
-82,
-53,
-118,
-61,
-33,
-35,
29,
6,
-130,
-102,
-32,
-177,
-151,
-175,
-331,
-69,
-29,
-41,
60,
41,
47,
-73,
23,
27,
-126,
-197,
-170,
-16,
-77,
-54,
31,
-59,
-172,
-54,
-173,
-54,
30,
191,
72,
80,
-41,
21,
-73,
-32,
-277,
-218,
43,
-20,
187,
162,
116,
129,
26,
3,
-69,
-141,
-153,
-198,
-150,
32,
-39,
100,
153,
-28,
9,
-40,
34,
-147,
-200,
-35,
98,
139,
229,
188,
-23,
-110,
-1,
-66,
0,
-44,
31,
262,
131,
293,
-14,
60,
-168,
-54,
-25,
-72,
62,
46,
193,
277,
20,
131,
-145,
-38,
-244,
-129,
-16,
-16,
108,
205,
92,
71,
-57,
-136,
-100,
-159,
-138,
-143,
-17,
60,
63,
98,
-24,
-203,
-269,
-210,
-150,
43,
-15,
-34,
-14,
-2,
-22,
-9,
-124,
-339,
-215,
-139,
-89,
-24,
-107,
-15,
-24,
-31,
-5,
9,
-4,
-5,
-13,
-134,
-104,
-68,
37,
11,
-40,
0,
25,
40,
-89,
-84,
5,
-240,
-62,
-67,
-137,
-87,
-65,
-56,
31,
50,
69,
-8,
-72,
-64,
-67,
-260,
-82,
-78,
-26,
-62,
9,
103,
-58,
-121,
-103,
-108,
-74,
-51,
-38,
-80,
9,
-27,
23,
109,
127,
25,
4,
-97,
9,
-36,
-85,
145,
115,
-2,
151,
241,
172,
295,
158,
39,
107,
78,
146,
149,
160,
55,
118,
243,
235,
77,
140,
31,
112,
143,
178,
119,
202,
32,
48,
115,
143,
117,
73,
159,
-40,
18,
-2,
96,
87,
8,
-45,
-25,
-20,
70,
138,
323,
2,
-21,
18,
17,
63,
-13,
13,
-102,
-79,
-23,
166,
157,
118,
66,
-75,
44,
-11,
-86,
-118,
-134,
-133,
93,
56,
45,
11,
59,
1,
22,
-4,
-13,
-43,
-62,
-135,
-88,
-147,
-190,
-135,
0,
1,
-15,
-21,
-38,
-34,
-35,
-30,
-38,
88,
22,
-5,
-54,
-30,
-11,
-13,
-60,
53,
139,
67,
92,
72,
-5,
24,
-83,
-106,
-92,
-55,
-68,
64,
98,
209,
179,
205,
122,
-21,
-159,
-164,
-111,
-20,
73,
81,
88,
89,
225,
130,
103,
-271,
-174,
-262,
-180,
-71,
20,
239,
267,
315,
425,
227,
59,
-10,
-284,
-177,
-74,
-15,
-11,
102,
134,
188,
219,
43,
-87,
-156,
-18,
-94,
38,
14,
-99,
-66,
68,
164,
-3,
-181,
-53,
-177,
-10,
119,
119,
146,
-89,
-151,
-159,
-121,
-102,
25,
4,
-78,
77,
181,
182,
209,
-65,
-59,
-178,
-40,
-35,
71,
258,
18,
52,
250,
280,
191,
43,
-2,
-115,
19,
92,
160,
48,
169,
301,
286,
212,
102,
77,
51,
-20,
98,
172,
56,
10,
146,
110,
185,
39,
-23,
-63,
-12,
0,
48,
30,
-46,
6,
97,
29,
4,
-10,
-60,
15,
23,
6,
9,
-8,
-49,
-25,
-60,
0,
3,
-15,
2,
28,
-7,
-18,
-13,
-59,
-14,
-30,
31,
8,
97,
43,
35,
38,
-1,
103,
-34,
-19,
-28,
48,
60,
-79,
39,
0,
22,
20,
101,
-58,
-15,
-21,
34,
55,
33,
51,
77,
-42,
38,
31,
128,
48,
14,
-11,
-16,
64,
126,
155,
72,
-7,
26,
19,
128,
34,
-10,
38,
72,
24,
144,
163,
-2,
-10,
-31,
39,
66,
17,
-110,
-1,
-98,
75,
46,
-140,
-97,
-149,
-69,
16,
-37,
10,
-73,
-82,
-105,
13,
-111,
-49,
-85,
-60,
-45,
-5,
-89,
-18,
-96,
17,
-48,
-25,
-92,
-72,
11,
-82,
48,
-26,
-57,
-40,
55,
-18,
-27,
-98,
-7,
82,
157,
165,
37,
9,
-20,
-57,
-126,
-61,
-142,
-214,
-55,
200,
186,
121,
35,
21,
46,
43,
-32,
-8,
-75,
-101,
17,
62,
106,
61,
15,
-24,
-54,
-50,
0,
129,
-36,
200,
200,
-10,
0,
42,
-30,
-47,
-52,
-9,
17,
1,
150,
26,
193,
86,
261,
-72,
-39,
-6,
-45,
-62,
6,
62,
114,
145,
168,
-20,
43,
-60,
-49,
-53,
4,
-151,
55,
6,
48,
170,
-52,
-163,
-16,
-34,
-182,
-51,
132,
147,
-11,
142,
161,
-41,
-172,
-226,
-322,
-54,
16,
-1,
-30,
123,
63,
208,
93,
34,
-198,
-371,
-121,
-28,
-29,
20,
-126,
-104,
-343,
-160,
-14,
67,
-343,
-302,
-145,
-52,
161,
-4,
-40,
-293,
-298,
-179,
-245,
-74,
-117,
104,
112,
113,
253,
31,
-54,
-232,
-213,
50,
-145,
93,
325,
293,
124,
363,
49,
19,
-179,
-333,
-91,
-147,
-63,
-73,
301,
298,
411,
352,
156,
-34,
-56,
-98,
5,
-102,
28,
129,
318,
335,
329,
257,
28,
-86,
-183,
-169,
-95,
9,
-30,
52,
179,
169,
113,
39,
-61,
0,
-20,
-9,
-22,
33,
-82,
22,
18,
-86,
-52,
0,
-29,
9,
-30,
-69,
-87,
-87,
-120,
-17,
35,
-90,
-19,
-43,
-3,
18,
-41,
-101,
-59,
-96,
-24,
-65,
166,
174,
-3,
-82,
27,
4,
62,
-72,
-141,
-32,
-152,
-66,
205,
266,
86,
53,
13,
-7,
49,
-80,
-191,
-124,
-148,
-41,
139,
181,
139,
124,
17,
-35,
-66,
-65,
-116,
-236,
-260,
-125,
-62,
106,
74,
-82,
39,
-4,
-41,
-49,
-223,
-206,
-179,
-214,
-42,
120,
-31,
-179,
2,
56,
14,
50,
-139,
65,
-111,
-223,
-19,
28,
20,
-281,
44,
88,
-17,
107,
111,
177,
-89,
-81,
18,
-15,
18,
-13,
-1,
51,
15,
132,
135,
38,
-121,
-59,
5,
15,
35,
8,
-12,
7,
45,
49,
33,
-87,
-173,
-164,
-68,
-81,
62,
-29,
-13,
-30,
-24,
-24,
-69,
-66,
-200,
-166,
-66,
-31,
28,
-18,
-11,
-28,
-15,
1,
-24,
40,
64,
4,
54,
32,
34,
0,
-30,
-18,
21,
7,
-17,
-53,
84,
26,
16,
10,
-46,
-41,
-28,
-30,
44,
45,
-7,
5,
-43,
-2,
-8,
-15,
-71,
-33,
-14,
-56,
-20,
-5,
-100,
-33,
-27,
28,
40,
-98,
-81,
-55,
5,
17,
45,
55,
75,
85,
61,
-70,
-54,
-110,
-110,
-24,
37,
57,
132,
164,
196,
237,
84,
142,
-82,
-47,
7,
-4,
46,
5,
44,
107,
39,
-36,
-2,
14,
1,
-40,
32,
45,
69,
12,
55,
-8,
1,
-115,
-52,
-27,
26,
89,
4,
60,
31,
-22,
-68,
-87,
-40,
-56,
28,
88,
24,
-3,
11,
120,
71,
-44,
-61,
-121,
-83,
-132,
-8,
81,
86,
161,
207,
183,
20,
-53,
-125,
-174,
-84,
-14,
-76,
-50,
164,
157,
139,
121,
-3,
22,
21,
-17,
-31,
-82,
-104,
-62,
29,
105,
90,
6,
5,
-22,
16,
21,
3,
-38,
-213,
-140,
-163,
-90,
-16,
-15,
24,
6,
21,
-32,
-114,
-131,
-38,
-127,
-226,
-180,
-90,
-107,
-19,
-15,
14,
92,
31,
-2,
31,
-6,
6,
-31,
-30,
24,
56,
69,
68,
66,
20,
-115,
-87,
-110,
-43,
108,
91,
27,
25,
-43,
16,
-74,
-241,
-195,
-164,
-2,
-11,
176,
204,
76,
80,
36,
150,
92,
-131,
37,
102,
-36,
90,
213,
197,
123,
14,
32,
123,
33,
99,
140,
12,
175,
103,
71,
-60,
-91,
72,
-5,
13,
43,
86,
113,
53,
200,
156,
-5,
-232,
-219,
-17,
34,
46,
72,
78,
154,
-95,
171,
20,
-277,
-132,
-43,
-57,
29,
72,
26,
-21,
-42,
-104,
-74,
-38,
-155,
-248,
-64,
4,
-86,
47,
-78,
-79,
-101,
-215,
-328,
-336,
-208,
-61,
-27,
26,
-22,
-16,
-62,
-62,
-121,
-109,
-273,
-193,
14,
-2,
1,
-21,
-8,
-5,
-44,
-70,
-6,
-45,
-58,
-161,
-111,
-156,
-84,
-8,
-10,
-34,
22,
-43,
-78,
-67,
-41,
-189,
-162,
-170,
-55,
-35,
-6,
17,
172,
63,
19,
-2,
-79,
-159,
-74,
-203,
-100,
-57,
-66,
194,
75,
-82,
17,
-96,
-200,
28,
-8,
-54,
112,
-5,
3,
-20,
88,
-151,
-151,
-39,
-267,
64,
90,
74,
102,
47,
-45,
37,
-2,
-222,
-155,
-43,
-25,
-49,
199,
154,
40,
135,
-7,
45,
31,
-29,
103,
112,
-118,
234,
156,
149,
17,
102,
-71,
39,
-28,
74,
259,
247,
194,
245,
144,
62,
55,
116,
-27,
-105,
149,
137,
227,
237,
202,
8,
16,
-168,
-117,
-10,
23,
51,
29,
6,
110,
18,
141,
93,
-103,
-108,
-85,
-13,
49,
9,
12,
-19,
57,
-61,
18,
-118,
-49,
-159,
-130,
39,
-18,
1,
-118,
-73,
-213,
-58,
-187,
-276,
-64,
-42,
-81,
-24,
-44,
-38,
-27,
24,
87,
6,
39,
19,
-22,
-91,
-52,
-22,
-7,
-18,
-44,
26,
53,
147,
58,
18,
-85,
-97,
-89,
-23,
-18,
-35,
-41,
58,
156,
106,
80,
-84,
-87,
-64,
-34,
-81,
-15,
-4,
-208,
-62,
-145,
-58,
115,
27,
19,
-69,
20,
-63,
-30,
-42,
-103,
-212,
-29,
-62,
70,
-108,
65,
82,
0,
-10,
10,
-92,
-149,
-96,
-57,
10,
32,
-43,
2,
43,
-28,
49,
26,
-11,
-163,
-211,
-89,
105,
-41,
-62,
-82,
-17,
-4,
103,
29,
-5,
-147,
-131,
-10,
150,
109,
-53,
-82,
-75,
-56,
88,
46,
-20,
47,
-38,
68,
75,
-26,
53,
-29,
-31,
16,
-16,
-27,
-7,
18,
38,
28,
0,
40,
84,
-20,
102,
-17,
-25,
-38,
-82,
-37,
-6,
-25,
-43,
105,
97,
155,
88,
14,
6,
-31,
-61,
-34,
-55,
-143,
-145,
22,
-17,
27,
-15,
-23,
-13,
-17,
25,
21,
28,
-40,
-77,
-43,
-110,
-62,
-17,
1,
-5,
-2,
0,
10,
-24,
-98,
7,
5,
0,
-38,
18,
-1,
-7,
-4,
40,
15,
-15,
-16,
-43,
-32,
33,
21,
-4,
-27,
26,
-12,
53,
-95,
-36,
-18,
-93,
-99,
5,
37,
92,
-50,
16,
30,
129,
-11,
-145,
-31,
-57,
23,
57,
61,
62,
35,
3,
-8,
76,
-31,
-50,
38,
-35,
36,
108,
95,
41,
21,
7,
62,
16,
-29,
59,
42,
-81,
-47,
74,
-48,
-68,
-11,
9,
-22,
-60,
77,
61,
13,
-48,
20,
15,
32,
-15,
-71,
14,
-4,
-38,
134,
-20,
159,
45,
93,
-91,
-137,
47,
-53,
69,
3,
-6,
45,
0,
32,
56,
57,
4,
-65,
0,
91,
-9,
3,
-18,
-11,
-57,
5,
-98,
-36,
-38,
3,
49,
32,
-2,
-11,
-27,
-41,
-10,
73,
-43,
-48,
-15,
1,
20,
-6,
12,
-17,
-22,
-27,
-18,
-35,
-22,
-36,
-36,
-50,
-20,
-19,
-39,
-46,
0,
-45,
-45,
44,
0,
38,
9,
-21,
-110,
-93,
-77,
-38,
-66,
-45,
53,
108,
55,
30,
119,
-11,
38,
-79,
-26,
-19,
-37,
-96,
-83,
-110,
48,
-46,
-24,
69,
-92,
-94,
-1,
-38,
-61,
-50,
-59,
-64,
67,
124,
-111,
23,
-74,
9,
16,
-50,
15,
52,
-67,
-145,
-87,
-2,
18,
-24,
-64,
-25,
52,
-46,
-53,
-55,
-14,
-66,
43,
-5,
-105,
-88,
-9,
63,
79,
-17,
-40,
-32,
-14,
25,
2,
-76,
-125,
-3,
-7,
3,
138,
10,
54,
38,
81,
59,
25,
-33,
-54,
-12,
60,
13,
144,
-30,
19,
92,
0,
55,
-5,
87,
-38,
4,
14,
33,
23,
-11,
3,
-4,
-16,
12,
59,
53,
86,
67,
70,
50,
11,
-40,
-10,
10,
-5,
-89,
44,
-43,
-4,
19,
11,
-23,
-37,
-6,
-12,
9,
-45,
-44,
-83,
-83,
-47,
96,
82,
12,
-14,
13,
-6,
-17,
-8,
-92,
33,
25,
-2,
-122,
-58,
-31,
13,
-11,
21,
111,
138,
88,
115,
-5,
0,
81,
-23,
-26,
25,
-56,
92,
220,
-1,
-141,
-123,
-41,
-35,
123,
-73,
-47,
9,
84,
162,
208,
156,
137,
98,
185,
-135,
26,
20,
-15,
30,
42,
293,
474,
496,
468,
149,
30,
37,
-54,
-54,
108,
107,
20,
59,
269,
227,
72,
15,
94,
-51,
112,
134,
51,
194,
-19,
-30,
116,
-34,
-126,
-31,
4,
-103,
-108,
104,
140,
161,
-34,
-100,
-71,
-160,
-11,
77,
96,
0,
-8,
106,
263,
185,
-32,
-37,
-142,
-237,
-110,
-124,
101,
25,
8,
100,
158,
87,
38,
-60,
-190,
-132,
-28,
34,
-47,
44,
151,
116,
129,
132,
73,
60,
73,
10,
-20,
-4,
-74,
-126,
17,
6,
-5,
24,
-18,
-16,
-24,
-17,
-10,
45,
40,
39,
45,
-31,
-31,
-23,
-21,
-5,
15,
-41,
-60,
-138,
-78,
-10,
51,
120,
33,
-14,
-24,
27,
48,
125,
112,
-13,
-5,
-134,
-95,
-89,
-123,
-17,
-7,
-60,
-66,
-50,
-77,
-47,
-61,
-121,
-107,
-76,
-87,
-41,
4,
90,
84,
123,
62,
40,
41,
-10,
-131,
-159,
-57,
-2,
-8,
29,
180,
268,
187,
166,
80,
38,
-101,
-140,
100,
136,
11,
40,
124,
144,
67,
-48,
122,
-14,
-52,
27,
107,
132,
-35,
17,
-12,
12,
-24,
-43,
-95,
1,
143,
199,
207,
115,
-36,
6,
-129,
-21,
-67,
-56,
55,
116,
214,
85,
172,
141,
11,
0,
-127,
-173,
-223,
-219,
-161,
-13,
73,
128,
159,
114,
-9,
7,
-41,
-3,
-27,
-130,
-58,
-31,
80,
144,
78,
-4,
-27,
-8,
-73,
4,
-31,
-35,
67,
179,
127,
112,
57,
23,
-24,
13,
31,
67,
83,
134,
60,
74,
-9,
-71,
-78,
-37,
13,
19,
32,
36,
58,
-88,
7,
-21,
16,
36,
-21,
-14,
-39,
26,
-3,
39,
109,
221,
145,
-104,
-124,
-92,
-60,
-28,
-48,
-47,
-96,
-92,
184,
133,
195,
-98,
-73,
-35,
-76,
-1,
38,
45,
82,
102,
245,
191,
9,
51,
-66,
-76,
-96,
25,
42,
122,
84,
260,
244,
227,
173,
-13,
-73,
-145,
-14,
95,
45,
110,
131,
112,
3,
-27,
134,
-6,
-77,
-35,
49,
158,
25,
-6,
-97,
-123,
-116,
11,
-121,
-109,
-141,
100,
98,
89,
-35,
-104,
-23,
-67,
-364,
-248,
109,
-25,
207,
215,
266,
116,
5,
-43,
-220,
-219,
-155,
-77,
3,
189,
422,
403,
290,
58,
-83,
-198,
-242,
-111,
-177,
-140,
-2,
235,
298,
306,
160,
46,
27,
35,
-50,
-63,
-182,
-151,
-25,
178,
228,
131,
53,
28,
-8,
11,
17,
72,
29,
-50,
-105,
-115,
-199,
8,
-16,
-4,
-53,
-25,
15,
-16,
-25,
-116,
23,
-49,
-31,
-48,
-45,
13,
4,
-8,
-87,
80,
20,
209,
292,
50,
14,
35,
-118,
4,
18,
-87,
-175,
-33,
-32,
12,
239,
144,
357,
196,
2,
13,
-58,
-89,
-216,
-260,
-60,
-52,
94,
338,
267,
100,
77,
16,
-64,
-43,
-152,
-261,
-231,
-300,
-10,
87,
108,
2,
-86,
-2,
-28,
-79,
-246,
-283,
-183,
81,
-14,
-85,
-82,
-117,
-74,
25,
24,
15,
-192,
41,
12,
-36,
-18,
-69,
-221,
-75,
-166,
92,
83,
37,
66,
178,
-32,
-24,
-124,
-180,
-66,
-66,
-42,
43,
55,
3,
6,
103,
-62,
-151,
-54,
-40,
-41,
2,
97,
-37,
18,
47,
63,
-38,
-45,
-189,
-181,
-47,
47,
109,
-13,
-4,
-52,
-37,
-62,
-84,
-71,
-100,
-183,
-223,
-98,
4,
3,
-6,
-12,
-8,
-21,
-19,
55,
-45,
-35,
-31,
-108,
-124,
10,
-19,
5,
-22,
-43,
-111,
-85,
128,
-37,
120,
-29,
26,
-40,
-19,
-2,
-90,
-205,
-251,
-88,
-60,
325,
309,
156,
138,
145,
-14,
-90,
42,
-211,
-249,
-29,
-45,
233,
-32,
149,
249,
86,
-145,
79,
-99,
-212,
-273,
-290,
-94,
-89,
41,
127,
61,
51,
41,
42,
-105,
-154,
-305,
-272,
-142,
-183,
-61,
-24,
131,
-34,
-27,
74,
-105,
-172,
-400,
-275,
-185,
-60,
-260,
-320,
-128,
-268,
20,
56,
10,
-23,
-117,
-133,
11,
-240,
-465,
-240,
-222,
-168,
-2,
69,
39,
204,
41,
75,
-50,
-92,
-147,
-147,
32,
-92,
-10,
96,
89,
125,
254,
155,
-49,
40,
112,
66,
-7,
52,
71,
-14,
-24,
122,
177,
2,
-182,
161,
66,
126,
128,
120,
40,
0,
-75,
-35,
-75,
-175,
-155,
-46,
69,
70,
34,
35,
-10,
-60,
-29,
-41,
-3,
-9,
-42,
32,
-73,
-63,
-48,
-64,
-36,
-64,
-76,
14,
104,
166,
117,
105,
50,
125,
-23,
-230,
-107,
-14,
-56,
8,
121,
190,
236,
67,
178,
77,
-45,
-151,
-89,
-40,
40,
34,
66,
7,
104,
60,
62,
-143,
-89,
-196,
-90,
-77,
-59,
124,
-34,
138,
221,
58,
-8,
62,
-46,
-51,
-2,
-98,
-3,
142,
-6,
256,
207,
101,
-114,
-163,
-207,
-57,
-12,
-70,
-76,
-72,
130,
164,
-34,
-97,
-283,
-120,
-48,
115,
202,
-44,
-22,
-129,
5,
-2,
36,
-117,
-6,
-90,
-50,
200,
327,
48,
24,
-46,
17,
90,
-33,
9,
17,
54,
110,
188,
179,
23,
18,
-88,
20,
109,
15,
112,
296,
217,
202,
188,
118,
36,
48,
-85,
-10,
59,
-18,
130,
69,
132,
96,
14,
14,
-63,
-50,
-46,
-9,
77,
175,
3,
-56,
86,
21,
-20,
-53,
1,
46,
25,
-2,
3,
8,
-1,
-4,
-52,
-76,
-51,
-8,
29,
13,
14,
48,
-64,
-69,
-142,
-83,
-117,
-129,
-67,
8,
20,
22,
53,
-105,
-107,
-198,
-60,
-104,
-47,
-100,
-131,
-39,
25,
42,
-1,
171,
81,
33,
-8,
132,
74,
107,
35,
-86,
12,
30,
-17,
80,
202,
-69,
9,
136,
56,
38,
3,
-9,
-5,
-3,
73,
160,
240,
267,
153,
29,
-81,
-103,
-124,
32,
-36,
-37,
-9,
-119,
67,
136,
-141,
-29,
-38,
-134,
-5,
19,
0,
-126,
-47,
-55,
-110,
21,
-123,
-35,
-220,
-35,
14,
-33,
-13,
-19,
-69,
-156,
-88,
-206,
-141,
17,
23,
48,
-9,
23,
-12,
-30,
-96,
-108,
-112,
-97,
-73,
61,
124,
-100,
59,
-18,
31,
-3,
-7,
-51,
-36,
-17,
87,
132,
157,
35,
27,
-22,
39,
40,
12,
45,
0,
63,
90,
169,
35,
59,
22,
-1,
30,
35,
65,
17,
37,
35,
92,
37,
14,
-52,
-7,
35,
22,
11,
50,
69,
132,
111,
-8,
-78,
-68,
-27,
30,
-1,
55,
45,
29,
41,
100,
113,
-66,
-100,
-88,
-71,
18,
-20,
66,
17,
17,
-111,
89,
-136,
-9,
-1,
-56,
-31,
-127,
-16,
39,
-20,
-53,
56,
-67,
40,
44,
118,
73,
-42,
-40,
-42,
18,
-66,
-101,
-27,
15,
-64,
91,
69,
185,
45,
35,
-13,
50,
-57,
-114,
-174,
-13,
160,
171,
48,
87,
4,
23,
7,
24,
-31,
-27,
-125,
123,
188,
86,
147,
10,
1,
-20,
14,
79,
5,
1,
-43,
209,
197,
72,
84,
69,
94,
40,
-27,
43,
5,
62,
-20,
88,
169,
88,
97,
-36,
-9,
-37,
-48,
70,
56,
28,
112,
39,
65,
-21,
10,
44,
-26,
-7,
-3,
35,
90,
81,
100,
126,
10,
24,
45,
10,
-83,
21,
20,
0,
32,
18,
6,
-19,
-24,
49,
29,
12,
-10,
25,
-3,
2,
35,
0,
28,
101,
96,
-70,
-20,
-178,
-131,
-98,
-14,
-2,
52,
22,
62,
6,
40,
130,
-81,
-73,
-234,
-209,
-107,
-3,
13,
88,
178,
165,
136,
41,
-103,
-65,
-208,
-193,
-117,
17,
76,
145,
184,
340,
227,
148,
254,
185,
-76,
-74,
-101,
0,
97,
201,
167,
251,
221,
222,
254,
169,
38,
-44,
-21,
39,
45,
56,
-71,
39,
133,
55,
196,
106,
9,
-26,
38,
36,
26,
56,
54,
70,
140,
18,
36,
-2,
-23,
-136,
-112,
0,
24,
72,
211,
191,
29,
142,
192,
75,
-187,
-184,
-76,
44,
53,
96,
192,
183,
331,
90,
214,
113,
-14,
-119,
-4,
43,
106,
191,
236,
245,
196,
203,
108,
139,
-26,
-73,
-47,
12,
21,
77,
266,
372,
360,
112,
167,
67,
35,
-60,
-8,
14,
0,
6,
-43,
14,
70,
3,
-23,
-32,
4,
14,
29,
33,
29,
55,
6,
54,
57,
99,
12,
0,
13,
-71,
-23,
24,
41,
18,
13,
20,
134,
187,
84,
-7,
42,
-29,
-50,
47,
53,
48,
-22,
43,
93,
182,
154,
32,
-2,
-91,
-68,
3,
45,
117,
-11,
129,
135,
199,
97,
92,
33,
-15,
-34,
7,
16,
28,
-56,
-70,
43,
74,
144,
38,
47,
-27,
17,
14,
3,
-40,
-25,
-79,
-29,
24,
26,
34,
-41,
-55,
-54,
-5,
0,
-51,
-55,
-68,
-52,
7,
6,
-126,
-55,
-88,
-35,
25,
4,
-45,
13,
21,
-35,
-90,
-143,
-4,
-87,
-55,
-13,
37,
15,
3,
-74,
70,
-29,
-29,
-17,
12,
-52,
-8,
-1,
22,
19,
2,
55,
64,
154,
164,
68,
16,
127,
7,
-7,
37,
37,
18,
53,
123,
18,
130,
114,
16,
58,
17,
3,
33,
12,
18,
37,
-31,
25,
-173,
-148,
-104,
-17,
-40,
14,
51,
70,
57,
39,
-39,
-131,
-253,
-170,
-106,
-17,
-78,
20,
35,
38,
-42,
-92,
-222,
-115,
-68,
93,
31,
173,
-35,
81,
74,
30,
-197,
-373,
-304,
-278,
-98,
157,
256,
142,
74,
73,
61,
83,
-72,
-110,
-93,
-283,
-222,
78,
46,
63,
0,
-38,
61,
97,
4,
-95,
-85,
-381,
27,
-103,
0,
-45,
-120,
-28,
78,
-57,
-57,
-233,
-214,
-386,
-272,
-156,
-250,
-60,
-89,
47,
-7,
-57,
-253,
-362,
-221,
-406,
-302,
-19,
36,
5,
18,
88,
36,
-42,
-128,
-355,
-269,
-459,
-348,
47,
3,
94,
174,
27,
34,
66,
-206,
-210,
-372,
-342,
-134,
81,
162,
127,
127,
72,
-45,
5,
-85,
-38,
-269,
-121,
161,
151,
75,
101,
79,
66,
14,
24,
-19,
-11,
1,
12,
14,
-19,
124,
118,
58,
41,
27,
18,
-32,
-74,
-49,
62,
-8,
-85,
-53,
-65,
14,
46,
15,
6,
93,
110,
22,
-66,
-43,
-344,
-195,
-94,
-107,
-82,
39,
39,
-27,
112,
121,
188,
32,
9,
-129,
-211,
-101,
-72,
29,
40,
109,
164,
251,
84,
173,
155,
108,
-58,
-99,
-80,
-22,
46,
194,
63,
247,
347,
183,
224,
127,
33,
-16,
-9,
47,
34,
114,
2,
142,
149,
268,
60,
-25,
-39,
-25,
22,
31,
-39,
-159,
-91,
13,
33,
101,
-31,
-124,
-24,
-22,
-54,
-30,
-73,
-75,
-155,
114,
68,
-22,
0,
-40,
-90,
-165,
-50,
-11,
-22,
2,
74,
139,
241,
-7,
-180,
-32,
-128,
-113,
-14,
4,
10,
-88,
1,
296,
202,
182,
180,
66,
41,
-73,
-3,
61,
129,
105,
201,
230,
322,
365,
313,
-29,
118,
-42,
17,
-19,
28,
98,
144,
100,
-17,
157,
145,
-30,
-30,
-5,
24,
-9,
-36,
-63,
-18,
7,
2,
-17,
-116,
-72,
-26,
5,
-5,
26,
22,
78,
208,
117,
72,
2,
-94,
-14,
24,
-82,
-54,
85,
158,
144,
239,
85,
119,
10,
-85,
-136,
-192,
-126,
9,
71,
125,
194,
249,
259,
6,
-122,
-95,
-66,
-73,
-105,
-74,
80,
159,
209,
119,
104,
50,
176,
130,
75,
-25,
-17,
-15,
78,
62,
103,
152,
151,
193,
209,
155,
180,
42,
-31,
15,
-3,
-59,
-59,
-87,
52,
169,
207,
259,
22,
-118,
-84,
-34,
-63,
-67,
-107,
-42,
190,
162,
116,
53,
-23,
-105,
-67,
-66,
-34,
15,
-66,
-55,
79,
96,
84,
0,
-34,
-184,
-176,
-65,
92,
32,
51,
22,
51,
94,
138,
-3,
-59,
-45,
-72,
-23,
-10,
27,
65,
210,
93,
150,
-5,
49,
-103,
-177,
14,
-17,
75,
61,
63,
139,
70,
135,
23,
39,
65,
63,
36,
42,
-20,
7,
-28,
-5,
10,
27,
-22,
-35,
-44,
-14,
-26,
4,
-26,
-6,
7,
-8,
-20,
20,
-29,
-72,
-102,
-65,
-26,
-23,
6,
16,
4,
0,
69,
-43,
4,
21,
-15,
-17,
-4,
-53,
-4,
-7,
22,
-10,
-26,
-137,
-65,
-62,
-151,
-148,
-21,
0,
21,
8,
58,
-16,
-166,
-145,
-300,
-316,
-138,
-196,
-70,
-43,
11,
88,
122,
82,
-67,
-115,
-90,
-101,
-115,
-84,
18,
-38,
-4,
51,
66,
183,
66,
9,
-23,
-65,
6,
85,
16,
3,
-15,
7,
116,
131,
159,
78,
76,
-108,
-27,
-31,
-51,
-28,
-8,
-16,
94,
11,
68,
207,
90,
42,
36,
-79,
-9,
-18,
15,
-23,
53,
28,
-9,
32,
-38,
77,
15,
-28,
-110,
7,
-31,
-54,
-15,
-61,
11,
-62,
-55,
-32,
-59,
-113,
-78,
-1,
-11,
-33,
-33,
7,
-17,
-11,
-37,
-157,
-45,
-61,
-32,
-38,
25,
18,
14,
58,
111,
200,
301,
206,
165,
-38,
8,
24,
37,
20,
14,
102,
285,
398,
331,
364,
51,
50,
148,
-140,
76,
108,
91,
104,
99,
352,
161,
125,
25,
-156,
-118,
67,
37,
94,
158,
37,
192,
88,
63,
-186,
-220,
-218,
-157,
-218,
33,
104,
20,
-76,
-25,
-117,
-113,
-47,
-26,
-307,
-130,
-56,
-15,
29,
172,
-74,
-197,
68,
136,
146,
313,
114,
-77,
-27,
11,
-46,
130,
156,
164,
138,
243,
267,
252,
62,
-183,
-42,
27,
96,
249,
224,
282,
229,
206,
407,
86,
-136,
-124,
-44,
40,
38,
71,
175,
200,
283,
303,
103,
-147,
-134,
-272,
-141,
47,
70,
87,
182,
49,
-50,
-46,
-31,
-287,
-195,
-134,
-95,
13,
4,
22,
36,
-6,
-195,
-192,
-221,
-285,
-294,
-174,
-28,
93,
174,
179,
178,
158,
-122,
-125,
-81,
-88,
-47,
-8,
40,
38,
40,
45,
-9,
42,
19,
36,
-48,
53,
-42,
5,
21,
38,
30,
128,
27,
37,
10,
68,
9,
53,
-33,
6,
-32,
24,
34,
28,
-45,
-84,
34,
77,
-94,
13,
-28,
42,
-31,
36,
-6,
-95,
-181,
-229,
-118,
-138,
10,
-28,
-42,
111,
-48,
42,
-123,
-183,
-185,
-245,
-207,
-67,
52,
-299,
-167,
61,
-10,
19,
-122,
-221,
-145,
-128,
-102,
-153,
-80,
-3,
-21,
-18,
-21,
16,
-50,
-106,
-99,
-84,
27,
-200,
-83,
-127,
-55,
-90,
-35,
60,
8,
-53,
-10,
56,
0,
-73,
-95,
-77,
-26,
20,
0,
91,
-23,
46,
17,
-31,
-78,
-145,
-29,
18,
19,
76,
49,
44,
6,
74,
-70,
-174,
-237,
-154,
27,
-31,
-75,
56,
-12,
32,
-23,
131,
-103,
-153,
-257,
-181,
-9,
-57,
-142,
48,
-12,
39,
93,
-5,
-141,
-26,
-92,
-79,
15,
-27,
-56,
39,
27,
4,
1,
6,
-35,
0,
68,
53,
-5,
21,
15,
31,
14,
16,
4,
17,
74,
90,
122,
6,
-110,
-116,
1,
-25,
-21,
9,
30,
6,
163,
175,
160,
163,
118,
-86,
-105,
-96,
-50,
40,
72,
91,
86,
29,
-6,
94,
-12,
-70,
-88,
-53,
-29,
14,
46,
-29,
-95,
-36,
-94,
-67,
138,
28,
-73,
-60,
-18,
31,
15,
12,
-126,
-63,
-31,
43,
78,
60,
0,
22,
8,
51,
92,
93,
0,
-7,
31,
33,
23,
60,
44,
7,
14,
0,
87,
77,
58,
123,
72,
106,
180,
-42,
-108,
-36,
-36,
1,
28,
69,
145,
159,
172,
61,
-3,
-33,
-72,
-58,
-25,
33,
2,
72,
104,
201,
55,
42,
72,
-1,
0,
-62,
-1,
55,
109,
186,
105,
94,
167,
8,
29,
-6,
-84,
-48,
-30,
-37,
-4,
73,
76,
72,
-37,
-80,
-94,
-82,
-47,
-9,
-29,
16,
19,
-74,
-51,
56,
13,
-63,
-211,
-153,
-134,
-27,
6,
19,
19,
-18,
-80,
-152,
-104,
-152,
-238,
-201,
-110,
-126,
-51,
28,
32,
-51,
-186,
-198,
-185,
-65,
57,
147,
-32,
-72,
16,
-32,
12,
-15,
161,
-17,
147,
81,
161,
191,
123,
-138,
43,
-9,
-9,
104,
299,
259,
161,
90,
109,
114,
-27,
61,
29,
-28,
25,
193,
248,
226,
-79,
136,
56,
-34,
-242,
70,
4,
-13,
-65,
-212,
-136,
-189,
-154,
-114,
-52,
-32,
-14,
-3,
-39,
-21,
-130,
-245,
-290,
-263,
-353,
-77,
-31,
-72,
68,
-14,
22,
-7,
4,
-165,
-185,
-179,
-43,
-241,
-22,
180,
96,
94,
22,
-57,
-51,
-162,
-225,
-105,
-75,
24,
207,
102,
194,
-8,
22,
90,
-9,
-83,
-52,
35,
235,
261,
248,
113,
8,
32,
3,
10,
22,
9,
22,
-45,
18,
189,
139,
-31,
41,
25,
40,
27,
9,
3,
43,
-2,
-17,
-53,
-30,
-43,
-7,
23,
0,
-2,
31,
9,
48,
-69,
-96,
-274,
-194,
-290,
-135,
-146,
-17,
17,
72,
82,
-155,
167,
-132,
-91,
-121,
-164,
30,
-162,
-32,
59,
12,
-125,
-53,
-48,
-34,
211,
105,
237,
121,
44,
73,
56,
118,
-60,
228,
47,
130,
105,
238,
361,
292,
21,
-80,
86,
189,
103,
35,
159,
71,
257,
81,
256,
91,
15,
-56,
59,
-3,
27,
-155,
-61,
-123,
-85,
33,
-81,
-142,
-154,
0,
-6,
-154,
-197,
-392,
-297,
-430,
-44,
49,
-20,
-119,
-101,
38,
2,
-135,
-176,
-262,
-331,
-130,
-79,
44,
52,
71,
35,
-42,
-13,
32,
-138,
-126,
-112,
-9,
-9,
94,
71,
-8,
87,
-13,
19,
-69,
-177,
-204,
-90,
204,
291,
285,
240,
134,
86,
8,
42,
17,
21,
-21,
114,
125,
371,
186,
285,
125,
109,
34,
42,
23,
1,
63,
107,
96,
37,
32,
55,
28,
-9,
10,
22,
69,
58,
65,
137,
50,
77,
82,
12,
55,
40,
-1,
60,
47,
58,
43,
2,
128,
12,
-54,
18,
45,
-28,
35,
15,
-15,
-23,
-72,
-24,
-187,
-45,
48,
18,
7,
79,
26,
14,
-64,
-158,
-149,
-334,
-141,
-83,
23,
-91,
24,
32,
-38,
34,
-112,
-159,
-249,
-267,
-60,
82,
-44,
14,
-46,
-37,
-57,
30,
-92,
-119,
-111,
2,
-19,
23,
70,
-166,
-13,
-57,
6,
27,
33,
-53,
4,
32,
0,
101,
-45,
-23,
45,
8,
19,
66,
69,
77,
15,
-4,
115,
15,
86,
111,
85,
47,
6,
129,
155,
-25,
125,
-19,
52,
-13,
111,
50,
-41,
63,
9,
84,
103,
67,
23,
14,
-56,
-78,
18,
-23,
-36,
-18,
45,
59,
89,
13,
30,
-25,
-105,
-17,
-94,
17,
-2,
37,
51,
30,
-13,
-21,
-4,
1,
11,
-11,
-37,
-27,
-14,
24,
1,
1,
7,
-9,
-54,
-55,
-64,
-98,
-122,
-11,
-42,
-9,
11,
43,
3,
-3,
38,
40,
2,
-58,
-140,
-83,
-72,
-22,
13,
23,
31,
41,
67,
-66,
16,
-14,
-99,
-62,
-76,
-58,
-31,
0,
-47,
145,
134,
-4,
26,
-60,
-79,
-42,
-140,
-8,
-15,
29,
27,
64,
88,
147,
132,
135,
-41,
13,
-84,
32,
-11,
29,
-33,
51,
-13,
85,
64,
-66,
-46,
-3,
12,
18,
-32,
-8,
-13,
-27,
1,
29,
-40,
28,
-104,
-113,
2,
-19,
13,
3,
-56,
-23,
9,
-44,
188,
-57,
-30,
-3,
-73,
-16,
0,
0,
-29,
-35,
43,
7,
-20,
-21,
39,
35,
0,
-67,
14,
38,
-51,
-47,
-35,
53,
41,
66,
-2,
9,
-1,
-52,
-11,
4,
-4,
22,
-3,
63,
34,
24,
58,
-5,
-21,
3,
-10,
36,
14,
14,
-4,
19,
9,
-13,
-33,
-17,
0,
40,
12,
31,
49,
59,
36,
116,
61,
108,
39,
47,
36,
-48,
6,
43,
60,
64,
14,
-40,
110,
155,
31,
-11,
15,
19,
-54,
53,
46,
-14,
16,
-18,
111,
12,
-26,
-31,
-46,
-52,
-42,
11,
22,
-29,
-129,
-153,
-81,
57,
132,
26,
10,
35,
0,
19,
-77,
-108,
-144,
-142,
84,
-27,
73,
84,
-31,
23,
2,
12,
-63,
-93,
-194,
-200,
12,
43,
76,
68,
-31,
-31,
-73,
4,
-18,
-65,
24,
-96,
162,
28,
45,
-6,
50,
-30,
4,
6,
-30,
-48,
23,
50,
-8,
51,
-98,
85,
26,
-44,
15,
49,
43,
-64,
25,
14,
88,
-9,
159,
80,
1,
-6,
-12,
24,
22,
51,
142,
-43,
16,
161,
58,
9,
20,
20,
18,
42,
49,
24,
-51,
-28,
-33,
9,
92,
28,
8,
37,
14,
-10,
-37,
-62,
-79,
23,
25,
-40,
-107,
-100,
-114,
-17,
-6,
-21,
-11,
-24,
-31,
86,
13,
-12,
-179,
-22,
-125,
-109,
-54,
-42,
-33,
-21,
51,
52,
23,
-42,
-240,
-249,
-124,
-105,
-98,
44,
113,
115,
228,
247,
220,
-5,
6,
-139,
-301,
-230,
-37,
5,
79,
287,
158,
315,
182,
-12,
117,
133,
-108,
-100,
-97,
67,
214,
263,
236,
128,
244,
253,
102,
113,
59,
5,
-39,
76,
161,
169,
173,
-69,
22,
39,
40,
211,
65,
-123,
-70,
18,
-16,
9,
101,
-33,
-8,
93,
78,
96,
-170,
-212,
-50,
-19,
-77,
5,
53,
135,
-3,
-74,
73,
45,
-256,
-151,
-90,
-11,
-4,
-56,
30,
155,
83,
8,
48,
-76,
-165,
-171,
-106,
-6,
-24,
54,
117,
168,
26,
73,
-27,
-93,
-110,
-72,
-76,
-60,
-88,
-101,
-18,
-7,
93,
23,
128,
-86,
-144,
0,
-19,
-7,
13,
45,
68,
71,
65,
71,
169,
103,
26,
-20,
5,
18,
12,
-30,
-73,
83,
167,
135,
77,
99,
53,
6,
20,
58,
38,
33,
8,
31,
234,
179,
134,
-11,
-67,
-132,
-130,
27,
101,
95,
59,
174,
141,
246,
156,
52,
-82,
-87,
-39,
37,
19,
45,
46,
157,
23,
0,
44,
-36,
-68,
-99,
-89,
18,
53,
-1,
-105,
-58,
-134,
-35,
78,
102,
29,
-38,
-63,
10,
9,
126,
27,
29,
-100,
-129,
-33,
-88,
27,
-60,
3,
-19,
33,
134,
115,
-18,
-27,
-134,
-155,
-165,
-122,
-181,
-41,
7,
24,
101,
55,
85,
-53,
-6,
-52,
-32,
-121,
-74,
-19,
-48,
-39,
69,
27,
42,
-45,
-124,
-112,
-31,
-108,
-105,
-46,
25,
5,
2,
-48,
-32,
-111,
-13,
-77,
-87,
-105,
-55,
-15,
-7,
4,
95,
164,
101,
16,
14,
24,
46,
16,
-44,
-14,
-10,
21,
23,
25,
45,
57,
8,
42,
39,
20,
22,
-42,
-5,
-23,
21,
114,
129,
176,
152,
90,
5,
7,
5,
37,
20,
27,
9,
154,
208,
219,
291,
154,
-26,
7,
-50,
-71,
0,
65,
-70,
-93,
-239,
-57,
-112,
-9,
-61,
-178,
-133,
-106,
13,
21,
-130,
-212,
-222,
-184,
-30,
154,
-149,
-274,
-105,
-67,
50,
58,
19,
-199,
-192,
-126,
-103,
138,
130,
16,
-14,
-48,
61,
133,
152,
31,
20,
26,
20,
162,
118,
14,
57,
14,
34,
55,
298,
349,
286,
216,
159,
106,
52,
-10,
-101,
-51,
22,
201,
239,
175,
173,
359,
220,
115,
-37,
-39,
-76,
-58,
17,
109,
171,
227,
323,
48,
-63,
41,
-1,
-248,
-195,
-32,
71,
209,
172,
125,
131,
-1,
-55,
-119,
-118,
-217,
-124,
-43,
-34,
6,
111,
204,
188,
-50,
-177,
-67,
-58,
-44,
-9,
-15,
21,
48,
-4,
-5,
31,
7,
57,
-13,
-48,
-67,
-5,
44,
50,
18,
6,
-55,
3,
5,
139,
-109,
17,
13,
-27,
-6,
69,
12,
-73,
-128,
-175,
-153,
-149,
69,
11,
50,
90,
-59,
17,
-60,
-88,
-226,
-218,
-325,
-137,
-68,
77,
32,
-97,
1,
-44,
-90,
-72,
-142,
-125,
-174,
-242,
-77,
-71,
54,
-37,
44,
-65,
-101,
63,
24,
141,
-39,
-70,
-128,
-94,
-11,
88,
38,
-66,
-216,
19,
-49,
128,
52,
53,
-100,
-19,
26,
69,
-44,
-54,
-105,
-133,
-197,
25,
3,
-55,
256,
195,
78,
-4,
-21,
35,
-26,
-156,
-215,
-73,
16,
-111,
183,
165,
153,
-8,
-10,
58,
2,
-44,
-189,
-98,
-142,
-105,
148,
153,
19,
3,
7,
41,
-33,
-49,
26,
-137,
-72,
-44,
51,
30,
28,
12,
6,
71,
78,
-12,
8,
10,
-124,
-33,
61,
93,
19,
18,
17,
39,
29,
34,
-15,
72,
30,
-4,
27,
66,
27,
-11,
44,
32,
20,
34,
31,
113,
63,
134,
91,
65,
14,
51,
0,
55,
59,
5,
-4,
-1,
266,
11,
91,
52,
85,
89,
78,
65,
45,
-161,
-252,
-160,
-269,
-159,
17,
-55,
74,
122,
-138,
46,
-98,
-252,
-311,
-462,
-423,
-107,
-171,
-27,
-12,
-23,
-77,
28,
-95,
-190,
-243,
-393,
-229,
-140,
-97,
64,
-119,
-163,
-9,
64,
-36,
-103,
97,
-112,
-209,
-34,
10,
15,
8,
-77,
57,
88,
-8,
133,
-51,
-32,
72,
180,
73,
139,
-13,
94,
55,
178,
160,
53,
-64,
-75,
129,
162,
161,
75,
-32,
74,
12,
77,
104,
32,
-163,
-104,
23,
-66,
-4,
-43,
34,
61,
-32,
89,
150,
11,
-132,
-126,
-290,
-244,
-88,
-48,
-69,
-19,
-28,
12,
72,
0,
-56,
-72,
-235,
-266,
-104,
4,
-24,
23,
51,
16,
26,
-13,
-23,
-14,
-39,
-36,
-75,
-144,
-115,
-13,
34,
22,
85,
82,
40,
191,
273,
119,
24,
-65,
-96,
-154,
-87,
53,
109,
13,
96,
269,
280,
225,
79,
-1,
-77,
-124,
-22,
37,
101,
-2,
106,
186,
185,
71,
-26,
88,
-158,
-177,
-147,
9,
97,
62,
187,
231,
188,
92,
151,
186,
128,
117,
-42,
14,
11,
99,
39,
131,
236,
148,
261,
358,
249,
91,
-12,
8,
0,
-46,
-105,
-19,
102,
1,
436,
193,
-61,
-143,
-152,
3,
-86,
-115,
-138,
-170,
123,
228,
206,
-23,
-25,
-166,
-3,
23,
-71,
-101,
-27,
10,
292,
201,
58,
154,
-72,
-143,
-60,
40,
69,
-48,
7,
110,
147,
18,
31,
-60,
-105,
-34,
-30,
15,
-33,
-26,
41,
123,
187,
126,
66,
136,
-26,
-114,
-6,
58,
36,
51,
132,
180,
16,
97,
161,
69,
131,
40,
32,
-29,
-37,
-23,
-41,
-83,
-31,
-24,
-7,
19,
36,
12,
13,
-26,
-36,
-24,
11,
-82,
5,
-32,
162,
75,
148,
46,
13,
8,
-1,
-52,
-72,
82,
112,
249,
245,
111,
226,
188,
53,
10,
-15,
-47,
47,
42,
138,
155,
106,
225,
151,
128,
64,
-13,
-10,
0,
-34,
184,
56,
124,
41,
147,
191,
-5,
25,
-1,
20,
0,
0,
70,
99,
-248,
-86,
48,
92,
39,
-12,
51,
6,
-136,
67,
-29,
-51,
10,
-210,
-31,
-59,
-4,
-19,
8,
-49,
-57,
-108,
-176,
-24,
31,
115,
73,
31,
-37,
-17,
23,
55,
21,
-15,
-8,
-16,
-24,
78,
-63,
-11,
-27,
-8,
20,
-34,
-3,
9,
47,
28,
40,
-5,
-9,
19,
-49,
-19,
-10,
-41,
7,
26,
26,
39,
170,
154,
141,
-35,
-19,
-37,
-12,
43,
24,
3,
81,
66,
39,
58,
40,
9,
41,
-11,
23,
-28,
-50,
-67,
-28,
2,
-5,
-30,
56,
7,
-3,
0,
-6,
8,
37,
18,
49,
87,
-12,
-1,
53,
100,
51,
-6,
33,
9,
-16,
77,
-31,
-145,
-230,
-142,
9,
104,
91,
33,
8,
1,
-18,
31,
-90,
-132,
-248,
-96,
-64,
107,
-28,
67,
-24,
1,
111,
213,
15,
-117,
-82,
-27,
-6,
-46,
-6,
47,
8,
62,
-26,
75,
41,
-45,
-62,
-34,
163,
-26,
17,
7,
8,
20,
61,
-13,
26,
-136,
122,
75,
-42,
5,
46,
31,
35,
85,
-14,
-163,
-38,
-106,
0,
112,
61,
5,
-6,
-13,
4,
-26,
14,
-76,
-143,
-63,
-41,
-115,
-97,
-12,
-17,
29,
-5,
23,
-45,
-38,
-120,
-219,
-129,
-65,
-2,
35,
-1,
17,
7,
-47,
-46,
-59,
-74,
-136,
-114,
69,
-7,
70,
56,
24,
53,
41,
-74,
-19,
-43,
-1,
19,
-10,
64,
-4,
32,
-12,
-2,
-21,
-28,
-38,
-91,
-121,
-42,
-42,
-13,
-18,
14,
38,
6,
17,
18,
6,
0,
20,
-12,
-15,
-64,
20,
81,
72,
51,
19,
-16,
-17,
-90,
-250,
-272,
-178,
-159,
-26,
85,
-20,
27,
35,
-65,
-105,
-34,
-121,
-117,
-227,
-121,
-48,
116,
35,
2,
51,
-4,
-54,
-5,
-189,
-33,
-278,
-91,
-48,
9,
29,
16,
-2,
2,
-87,
-50,
42,
-34,
-66,
46,
143,
77,
47,
3,
-28,
-46,
-45,
-24,
72,
197,
-56,
-16,
121,
52,
-12,
26,
20,
48,
-60,
124,
-9,
158,
151,
173,
47,
10,
6,
60,
21,
55,
23,
-6,
-9,
14,
-12,
-13,
-64,
-36,
6,
-4,
-7,
31,
-9,
-36,
-76,
-206,
-327,
-148,
-129,
4,
104,
0,
-6,
-21,
20,
-71,
-114,
-190,
-206,
-123,
-51,
-14,
15,
49,
65,
57,
-126,
-140,
-92,
-54,
-50,
33,
-82,
-14,
17,
0,
0,
-11,
-9,
-25,
-32,
25,
-4,
-31,
3,
4,
40,
14,
4,
-34,
-27,
-8,
-37,
-33,
30,
-26,
38,
74,
34,
8,
20,
32,
0,
-72,
-138,
-73,
-82,
-44,
17,
103,
58,
2,
10,
66,
54,
-27,
-25,
-125,
-99,
-65,
-87,
115,
88,
7,
-26,
33,
25,
10,
24,
-20,
-144,
-28,
-9,
77,
38,
33,
13,
-7,
91,
-18,
122,
5,
-68,
-25,
61,
100,
-55,
-3,
-49,
22,
38,
-49,
156,
90,
8,
83,
108,
98,
17,
5,
84,
22,
0,
33,
148,
50,
167,
79,
140,
30,
4,
3,
27,
2,
32,
17,
5,
-48,
14,
65,
61,
6,
29,
3,
-1,
-30,
-17,
-43,
-35,
-35,
16,
-18,
19,
13,
-11,
6,
13,
41,
6,
-7,
-56,
-39,
-61,
-81,
-25,
21,
36,
4,
-11,
-17,
-3,
-64,
-40,
10,
-46,
-24,
51,
1,
4,
1,
7,
-59,
-12,
-32,
16,
58,
46,
-32,
-2,
-33,
-7,
13,
-29,
-91,
51,
188,
146,
458,
384,
221,
189,
131,
115,
-13,
-74,
140,
234,
156,
304,
399,
368,
278,
186,
90,
121,
-36,
-90,
41,
228,
308,
304,
330,
222,
323,
310,
87,
2,
39,
-191,
-24,
113,
194,
398,
40,
231,
102,
179,
133,
-68,
-20,
-326,
-64,
31,
43,
67,
-8,
-9,
294,
108,
-8,
-38,
-65,
-24,
-71,
-20,
-149,
-86,
0,
239,
122,
164,
25,
-43,
-75,
83,
-134,
-48,
-183,
177,
-53,
131,
10,
97,
52,
-18,
-84,
15,
-85,
86,
-35,
77,
49,
38,
-85,
-49,
-21,
-27,
-23,
-30,
12,
69,
188,
134,
160,
46,
-99,
-128,
27,
11,
-6,
-23,
-51,
100,
227,
170,
203,
96,
11,
60,
103,
4,
-11,
-61,
109,
-25,
149,
119,
106,
96,
-49,
-124,
30,
-23,
15,
-22,
-45,
-14,
-29,
-48,
-4,
-29,
-45,
-35,
18,
44,
-1,
51,
64,
-52,
-53,
-144,
6,
1,
54,
104,
157,
53,
44,
1,
-11,
11,
-204,
-245,
-50,
-40,
77,
143,
99,
94,
-3,
-64,
68,
12,
1,
-9,
-105,
-139,
-23,
197,
57,
5,
19,
-37,
68,
19,
55,
104,
-141,
-134,
85,
122,
109,
44,
43,
-14,
47,
8,
65,
-77,
16,
-97,
172,
192,
89,
29,
-49,
-126,
98,
-72,
-59,
10,
-57,
93,
222,
131,
45,
11,
52,
42,
-28,
-29,
-154,
46,
15,
89,
-17,
32,
41,
14,
48,
65,
5,
34,
-46,
14,
-189,
-138,
-96,
-97,
-18,
4,
4,
1,
42,
15,
-126,
-203,
-113,
-265,
-179,
0,
27,
-11,
-10,
58,
60,
-8,
-66,
-58,
-111,
-42,
16,
-15,
30,
29,
47,
41,
-84,
10,
-54,
10,
-33,
71,
-33,
20,
15,
-3,
-14,
25,
6,
-1,
46,
20,
-25,
-8,
-13,
-18,
-32,
-16,
-5,
9,
1,
-31,
-60,
-158,
-58,
-40,
-34,
2,
70,
42,
-28,
0,
-55,
-202,
-276,
-346,
-341,
-332,
-113,
44,
33,
30,
23,
-48,
-165,
-214,
-196,
-269,
-334,
-291,
-211,
73,
127,
58,
34,
-101,
-129,
-265,
-303,
-245,
-288,
-157,
0,
19,
66,
22,
-75,
-64,
-129,
-110,
82,
-53,
33,
-201,
20,
54,
29,
-6,
8,
88,
58,
55,
163,
129,
-102,
-3,
70,
148,
80,
6,
49,
92,
228,
99,
65,
115,
124,
166,
199,
57,
-28,
2,
64,
149,
120,
73,
30,
7,
42,
8,
16,
109,
-9,
-20,
45,
100,
87,
53,
-79,
-134,
-63,
-95,
-102,
-27,
10,
1,
-3,
-12,
-9,
6,
-121,
-170,
-25,
-26,
112,
93,
61,
-1,
-38,
-50,
-37,
-70,
-23,
-26,
31,
42,
42,
60,
29,
4,
-26,
-15,
22,
-20,
30,
25,
-12,
2,
75,
-28,
-3,
8,
0,
-21,
28,
79,
173,
208,
228,
169,
164,
32,
27,
4,
-10,
-15,
11,
57,
179,
169,
247,
208,
149,
17,
89,
-41,
-16,
-19,
-16,
71,
90,
99,
51,
56,
71,
-23,
30,
-41,
-14,
0,
-118,
48,
136,
31,
90,
45,
28,
-10,
-3,
24,
11,
-86,
-80,
49,
-81,
-55,
-127,
19,
7,
-17,
19,
57,
-18,
-101,
-116,
-121,
-165,
5,
-14,
-54,
-80,
-69,
-1,
51,
-33,
-35,
-21,
-84,
-127,
26,
-31,
-122,
-127,
-155,
-12,
15,
-26,
-28,
-40,
-101,
-54,
-101,
-99,
-38,
33,
-102,
-30,
-7,
-18,
10,
-2,
-5,
-34,
-20,
-91,
-37,
13,
12,
-13,
48,
-4,
31,
20,
67,
-13,
51,
6,
109,
108,
94,
17,
13,
-6,
-16,
9,
53,
-21,
82,
98,
124,
55,
37,
-13,
0,
15,
-24,
-30,
-74,
33,
-15,
13,
-91,
-45,
-24,
-66,
5,
-12,
5,
-29,
62,
79,
89,
-102,
-232,
-41,
-136,
62,
19,
16,
77,
154,
90,
-8,
-233,
-555,
-334,
-331,
-201,
-19,
105,
-10,
115,
13,
-117,
-56,
-350,
-393,
-425,
-318,
-144,
-195,
85,
17,
-40,
-12,
-48,
-293,
-320,
-296,
-246,
-202,
-188,
-155,
-19,
-25,
44,
-47,
-79,
121,
264,
75,
-219,
-77,
1,
41,
34,
52,
130,
124,
120,
191,
433,
339,
17,
-80,
-75,
217,
61,
18,
148,
-11,
31,
163,
149,
106,
-26,
-28,
78,
60,
-61,
25,
43,
6,
-103,
-13,
67,
84,
-71,
7,
170,
-60,
52,
38,
36,
-39,
-124,
-193,
-139,
-111,
-65,
267,
120,
8,
-18,
-44,
-52,
-142,
-181,
-193,
-112,
-171,
92,
228,
266,
162,
36,
66,
55,
-79,
-19,
-23,
101,
54,
79,
96,
112,
43,
25,
-6,
-49,
-36,
-40,
-57,
54,
16,
-7,
27,
37,
42,
14,
-25,
-30,
-27,
72,
153,
244,
275,
230,
104,
36,
94,
7,
-16,
-5,
-39,
224,
344,
420,
312,
245,
-57,
39,
86,
11,
-24,
79,
89,
348,
337,
197,
274,
170,
12,
129,
-50,
32,
-11,
95,
108,
136,
174,
142,
123,
128,
246,
124,
-144,
-49,
-24,
13,
-42,
-111,
-9,
-8,
-56,
198,
152,
14,
-50,
-35,
-68,
-79,
-152,
-176,
-129,
36,
91,
183,
122,
-77,
-4,
-26,
-17,
-103,
-127,
-141,
-115,
-63,
208,
226,
98,
55,
-27,
-56,
-22,
-132,
-117,
-199,
-110,
101,
134,
93,
-34,
152,
-45,
-25,
19,
-63,
-84,
-178,
-4,
182,
125,
258,
191,
176,
-33,
-38,
-21,
-46,
-61,
35,
87,
333,
197,
295,
191,
53,
12,
-53,
-27,
-26,
-42,
86,
126,
166,
189,
80,
-22,
48,
29,
-25,
6,
-3,
-18,
20,
-24,
-7,
-10,
-23,
-27,
-33,
11,
42,
11,
38,
23,
41,
23,
-45,
-104,
-38,
13,
16,
27,
58,
16,
34,
68,
-20,
-12,
-119,
-83,
-76,
-59,
10,
50,
-3,
6,
25,
5,
19,
24,
-144,
-165,
-193,
-156,
46,
12,
-61,
-10,
-26,
-30,
-24,
-84,
37,
-26,
-146,
-48,
2,
16,
31,
0,
-18,
29,
-75,
-48,
51,
12,
-7,
33,
-32,
12,
36,
-9,
-23,
-102,
-39,
80,
228,
-68,
35,
27,
81,
64,
21,
39,
30,
-14,
12,
64,
149,
-41,
52,
-42,
-24,
19,
-10,
35,
11,
-64,
-81,
-68,
-14,
-15,
-37,
-107,
-65,
-63,
-39,
-14,
5,
-91,
-84,
-107,
-159,
-146,
-74,
-109,
-27,
24,
23,
37,
49,
-15,
-35,
-8,
-9,
-37,
33,
53,
25,
-7,
24,
27,
6,
-3,
-53,
-34,
-6,
-4,
42,
24,
23,
19,
-4,
-44,
-45,
-10,
-102,
28,
84,
26,
68,
118,
19,
13,
-30,
5,
-39,
95,
122,
93,
107,
383,
386,
394,
200,
101,
-26,
16,
-56,
-58,
140,
272,
212,
330,
313,
222,
216,
220,
3,
-14,
-20,
138,
42,
372,
90,
287,
155,
306,
132,
118,
19,
32,
74,
-129,
83,
287,
60,
64,
120,
281,
59,
-58,
10,
37,
-83,
1,
-136,
62,
-324,
-278,
-113,
-22,
57,
-49,
-14,
-36,
-311,
123,
-175,
60,
6,
-166,
-131,
-117,
-40,
-13,
64,
-30,
-69,
-57,
66,
-127,
39,
139,
25,
-105,
-99,
12,
5,
26,
-19,
-10,
61,
102,
105,
2,
-27,
15,
-193,
-6,
35,
-29,
12,
96,
136,
71,
185,
141,
-86,
-44,
-4,
-36,
-3,
-31,
20,
113,
77,
42,
297,
170,
180,
-49,
-1,
-17,
-15,
47,
7,
-75,
88,
3,
87,
-22,
-6,
82,
53,
-29,
-6,
-7,
-19,
27,
-24,
-37,
28,
-74,
-18,
1,
-22,
-29,
-6,
-9,
-10,
-15,
96,
164,
53,
135,
214,
104,
181,
-7,
70,
25,
-55,
129,
81,
-75,
-56,
-26,
327,
272,
285,
257,
99,
-39,
-61,
-114,
46,
-32,
13,
-112,
87,
23,
71,
183,
108,
8,
-46,
-146,
18,
247,
59,
99,
24,
109,
182,
282,
76,
34,
-242,
-31,
217,
187,
176,
-252,
-236,
-139,
61,
26,
-14,
-103,
-109,
-65,
43,
66,
-167,
-103,
-44,
-10,
67,
14,
-7,
2,
26,
-48,
0,
-159,
-70,
-40,
34,
-73,
9,
-41,
-60,
-51,
100,
-2,
38,
-103,
-50,
45,
-77,
-86,
-74,
26,
11,
11,
19,
158,
109,
233,
89,
-21,
-84,
-130,
-260,
-28,
-30,
-11,
46,
44,
180,
172,
205,
17,
-167,
-85,
15,
40,
5,
-6,
-68,
113,
-7,
76,
125,
-15,
-32,
-22,
0,
32,
14,
-16,
-26,
-16,
-38,
-42,
-3,
-48,
-44,
-22,
2,
22,
-3,
19,
-20,
-5,
69,
-31,
-63,
-91,
-10,
5,
56,
37,
43,
10,
1,
60,
17,
-66,
-25,
-28,
20,
17,
67,
42,
98,
-13,
24,
60,
71,
49,
-62,
-121,
-23,
21,
26,
7,
41,
18,
50,
81,
157,
-9,
-97,
-87,
11,
35,
57,
-36,
-50,
29,
72,
149,
186,
158,
22,
-83,
103,
1,
53,
-20,
-18,
19,
48,
113,
-19,
82,
46,
-81,
82,
65,
76,
32,
-49,
-34,
26,
15,
67,
56,
5,
-94,
-90,
-98,
67,
35,
-42,
-38,
-6,
1,
-76,
-26,
-57,
-88,
-167,
-92,
-14,
-13,
-9,
-6,
-4,
-99,
-40,
-20,
-80,
-80,
-82,
16,
2,
-19,
11,
1,
0,
-40,
-40,
-47,
-50,
-15,
96,
53,
63,
42,
3,
17,
35,
-38,
-57,
-35,
82,
29,
100,
-8,
-13,
33,
1,
0,
-5,
-10,
-18,
-3,
45,
22,
31,
45,
-12,
29,
-7,
-18,
17,
39,
76,
126,
103,
161,
170,
108,
38,
22,
-24,
-5,
-32,
-27,
26,
2,
39,
168,
143,
114,
86,
98,
-20,
-24,
-16,
18,
13,
-49,
37,
42,
123,
26,
21,
49,
25,
-9,
-7,
-49,
94,
30,
6,
95,
9,
32,
43,
6,
27,
42,
-19,
52,
-63,
-19,
-25,
-86,
-24,
75,
8,
-32,
11,
-43,
-65,
-33,
-165,
-139,
-54,
-34,
-81,
-6,
53,
-12,
30,
-24,
-3,
-60,
-109,
-137,
-47,
-79,
31,
48,
-54,
16,
13,
6,
-26,
13,
-52,
-33,
-95,
-87,
-85,
39,
-42,
26,
8,
34,
11,
16,
14,
-30,
-53,
-45,
-30,
-35,
38,
10,
-10,
-9,
37,
0,
2,
-50,
7,
-75,
84,
33,
17,
24,
14,
-8,
10,
-53,
0,
-8,
55,
86,
108,
63,
81,
23,
16,
6,
1,
-18,
-25,
8,
-18,
-43,
-18,
5,
-36,
7,
15,
-9,
4,
6,
-10,
-19,
-14,
-11,
-30,
11,
87,
35,
36,
19,
3,
41,
29,
-17,
-88,
-71,
-146,
10,
-9,
91,
53,
-5,
49,
63,
45,
-25,
-191,
-203,
-216,
-121,
31,
94,
60,
1,
49,
52,
29,
54,
-79,
13,
-74,
-102,
58,
20,
55,
12,
-6,
68,
137,
53,
124,
31,
-16,
60,
14,
51,
12,
23,
26,
104,
-12,
8,
84,
46,
-84,
103,
91,
77,
12,
63,
83,
67,
-9,
7,
87,
29,
-3,
35,
27,
24,
27,
15,
8,
-6,
-76,
-104,
-31,
-21,
-3,
-52,
46,
34,
-13,
4,
-3,
7,
-64,
-74,
-24,
-25,
-74,
-36,
15,
0,
0,
14,
7,
-16,
-93,
-134,
-87,
-42,
-50,
-9,
51,
14,
0,
7,
-9,
-16,
-7,
-21,
32,
34,
40,
1,
45,
49,
9,
-21,
-20,
37,
61,
75,
107,
66,
49,
42,
10,
48,
15,
-1,
29,
25,
59,
92,
72,
45,
134,
57,
25,
49,
-20,
26,
33,
-13,
17,
37,
-142,
-157,
-19,
-31,
9,
64,
59,
-36,
2,
58,
45,
-44,
-74,
-253,
-393,
-222,
93,
31,
66,
12,
-8,
-108,
-189,
-59,
110,
14,
-177,
-153,
108,
58,
91,
38,
-137,
-258,
-156,
-128,
-38,
-150,
-312,
-50,
-67,
54,
37,
-98,
-249,
-213,
-285,
-51,
92,
-35,
-104,
50,
74,
125,
60,
-27,
34,
-53,
-58,
-41,
93,
104,
19,
89,
108,
93,
-1,
-16,
20,
35,
40,
11,
-22,
103,
-9,
62,
42,
40,
-11,
18,
54,
55,
88,
-22,
19,
3,
-139,
-19,
85,
35,
54,
6,
100,
57,
-66,
-75,
0,
-24,
-56,
-14,
28,
0,
-13,
-19,
-22,
-54,
-45,
0,
-6,
41,
11,
102,
138,
101,
22,
-7,
4,
-3,
-34,
-46,
-32,
-10,
-56,
-38,
-53,
-17,
-28,
0,
0,
-34,
-4,
-25,
-23,
-55,
-103,
-103,
-18,
9,
24,
23,
42,
-17,
-34,
9,
10,
-89,
-93,
-62,
-29,
108,
77,
15,
-1,
-16,
-79,
-60,
-100,
-42,
-31,
-149,
-11,
21,
46,
-16,
-17,
-107,
-87,
-74,
-90,
-2,
-90,
-127,
-60,
32,
60,
-31,
-97,
-175,
-87,
-4,
235,
127,
-64,
-56,
72,
110,
75,
16,
-41,
-66,
-42,
181,
291,
202,
82,
116,
167,
78,
35,
10,
8,
-16,
-32,
9,
195,
161,
172,
192,
155,
127,
43,
26,
4,
-66,
-26,
20,
93,
18,
224,
123,
72,
40,
15,
-8,
9,
18,
-50,
-44,
16,
23,
-37,
-14,
-37,
35,
59,
-12,
-43,
-68,
-46,
-67,
-22,
-34,
-48,
-52,
-1,
0,
-3,
0,
-7,
18,
-110,
-47,
0,
9,
39,
42,
-29,
-14,
18,
0,
-17,
-8,
-52,
-89,
-83,
-29,
-32,
-44,
-10,
40,
-5,
19,
-3,
19,
68,
117,
34,
0,
0,
-28,
-1,
11,
28,
25,
59,
29,
35,
72,
-150,
-82,
-113,
-32,
-84,
17,
-22,
1,
19,
40,
84,
-59,
-150,
-151,
-76,
-171,
-60,
-79,
-42,
6,
45,
-43,
22,
-123,
-167,
-99,
-168,
-235,
-100,
-41,
12,
3,
-63,
-63,
-171,
-8,
24,
-26,
-115,
-228,
34,
85,
48,
-29,
-44,
-41,
-110,
296,
206,
73,
-64,
-88,
13,
80,
35,
-15,
-8,
64,
59,
141,
330,
52,
33,
27,
10,
107,
55,
-2,
31,
-148,
-58,
66,
4,
65,
82,
-17,
-61,
17,
-10,
-54,
1,
-32,
-38,
-38,
-166,
-177,
-62,
-133,
74,
37,
47,
13,
27,
-64,
-78,
-21,
-97,
-17,
-96,
17,
-57,
8,
33,
39,
22,
25,
-135,
14,
-61,
40,
-9,
-16,
-15,
-8,
16,
0,
-37,
-53,
-107,
-22,
-14,
17,
-18,
77,
-3,
37,
12,
-41,
-44,
37,
-3,
190,
268,
259,
166,
221,
118,
105,
-57,
40,
-32,
19,
160,
134,
188,
285,
200,
289,
126,
170,
-27,
14,
50,
24,
146,
283,
147,
102,
215,
168,
132,
13,
25,
40,
-6,
61,
154,
187,
74,
148,
149,
150,
36,
-28,
18,
28,
31,
36,
28,
-38,
-146,
207,
-130,
76,
-53,
-111,
37,
39,
13,
149,
-60,
-38,
-142,
138,
-77,
-167,
-14,
-154,
37,
44,
39,
24,
-232,
-98,
-47,
-103,
-120,
-68,
-63,
-60,
-19,
15,
-24,
2,
5,
-13,
3,
-5,
39,
-80,
-40,
28,
-18,
-13,
-55,
70,
36,
23,
73,
144,
7,
54,
9,
-46,
-13,
-46,
-39,
37,
3,
21,
56,
92,
113,
73,
93,
2,
3,
31,
11,
-60,
49,
3,
91,
52,
23,
-68,
101,
21,
-14,
-18,
-21,
-28,
-58,
-76,
-4,
24,
-39,
-13,
43,
-35,
22,
-8,
2,
37,
151,
157,
276,
259,
195,
106,
26,
68,
36,
-52,
43,
161,
413,
457,
284,
111,
10,
-71,
1,
-65,
98,
10,
122,
179,
488,
345,
184,
60,
80,
103,
-112,
-150,
30,
45,
91,
183,
202,
153,
68,
-60,
186,
271,
-5,
-57,
-64,
29,
53,
-168,
162,
-48,
-62,
-13,
338,
173,
43,
37,
-89,
-100,
-28,
-30,
70,
61,
-153,
-44,
107,
139,
5,
141,
-49,
-149,
-35,
-105,
-1,
-45,
-68,
-76,
-120,
-83,
95,
-73,
-85,
-92,
-13,
-167,
-211,
-126,
32,
-43,
-161,
82,
-61,
-75,
13,
-22,
-49,
-189,
-114,
-134,
-119,
57,
160,
113,
-6,
58,
-18,
-33,
-21,
-83,
-19,
63,
-7,
141,
336,
209,
21,
131,
-10,
-2,
38,
53,
9,
61,
107,
232,
190,
2,
-19,
48,
9,
-6,
4,
11,
-24,
43,
4,
67,
-19,
32,
39,
-11,
27,
32,
19,
-36,
43,
-59,
7,
-8,
79,
0,
96,
97,
51,
40,
4,
-31,
-27,
-209,
-341,
-365,
-311,
-371,
-88,
170,
71,
-16,
76,
4,
-147,
-145,
-313,
-324,
-286,
-305,
-168,
108,
198,
12,
55,
-43,
15,
-62,
-318,
55,
-205,
-203,
-19,
55,
147,
32,
-89,
6,
-18,
39,
9,
-84,
-229,
-145,
92,
93,
65,
-10,
-43,
68,
117,
143,
22,
-14,
-222,
154,
198,
44,
-47,
80,
99,
30,
112,
78,
-20,
-29,
347,
147,
83,
-35,
-82,
25,
82,
130,
3,
-131,
-52,
-19,
16,
87,
97,
40,
92,
50,
33,
128,
59,
25,
-106,
-88,
-6,
49,
-56,
-11,
-57,
13,
18,
30,
-2,
-118,
-44,
-130,
-134,
-11,
-34,
61,
63,
-1,
-52,
-64,
-11,
-6,
70,
37,
39,
102,
148,
44,
11,
11,
-1,
-15,
-19,
-21,
-38,
37,
86,
83,
-9,
13,
49,
-26,
-4,
-9,
4,
3,
95,
136,
54,
95,
73,
101,
69,
5,
-14,
-86,
60,
23,
82,
37,
110,
93,
54,
164,
27,
-17,
-34,
-13,
-135,
-135,
-4,
-44,
-180,
-190,
-35,
22,
70,
-9,
-8,
-60,
-62,
30,
4,
-123,
-308,
-344,
-281,
-49,
-71,
11,
-5,
-93,
-79,
69,
71,
-108,
-214,
-298,
-223,
-155,
-39,
-21,
-5,
-42,
-116,
-33,
0,
0,
-125,
-128,
-115,
-6,
25,
35,
30,
61,
-134,
-118,
-117,
-67,
-36,
-95,
-19,
-8,
-50,
59,
11,
-27,
-95,
-166,
-115,
15,
-105,
55,
-26,
-37,
-33,
-9,
37,
24,
44,
-23,
4,
-25,
55,
37,
176,
-4,
51,
22,
52,
36,
22,
26,
-41,
-51,
41,
84,
19,
106,
37,
8,
-11,
-18,
34,
-47,
101,
31,
42,
23,
57,
79,
-28,
-5,
-34,
-41,
-38,
-68,
6,
18,
71,
83,
-18,
3,
-23,
-22,
-36,
-48,
-51,
-49,
-84,
-107,
-68,
-49,
11,
36,
-19,
-58,
-58,
-13,
-103,
-83,
-37,
-56,
-20,
17,
-61,
8,
58,
-71,
-62,
48,
-5,
-57,
26,
-19,
-63,
-68,
-90,
54,
-13,
-43,
-90,
-62,
26,
-12,
-30,
-39,
-70,
-159,
-152,
-63,
30,
-38,
10,
33,
-72,
-24,
75,
-25,
-60,
-83,
-72,
-15,
-40,
16,
15,
-42,
81,
34,
44,
-2,
-54,
-37,
38,
-3,
-20,
82,
84,
47,
30,
144,
83,
3,
-14,
46,
-31,
31,
-32,
18,
64,
-60,
-7,
92,
-23,
16,
132,
-57,
65,
10,
16,
-1,
77,
12,
62,
92,
-43,
35,
101,
-30,
58,
30,
2,
24,
-41,
59,
64,
46,
-75,
75,
40,
14,
-37,
22,
-5,
-65,
13,
66,
26,
134,
105,
10,
-21,
-30,
-45,
-20,
0,
-20,
-52,
-49,
-40,
-23,
14,
0,
101,
117,
100,
40,
10,
-11,
-34,
-15,
-32,
-24,
-14,
139,
93,
91,
43,
149,
118,
-70,
-95,
-12,
-13,
9,
-128,
-16,
119,
337,
273,
244,
169,
-31,
-74,
-148,
-172,
-55,
-32,
18,
144,
319,
346,
218,
144,
-30,
-136,
-210,
-65,
-115,
-31,
-18,
37,
249,
297,
90,
-23,
-85,
-92,
-77,
-66,
-105,
53,
24,
-88,
-32,
60,
108,
70,
-23,
47,
32,
-26,
0,
-9,
103,
38,
4,
-153,
7,
-34,
14,
139,
231,
95,
0,
-23,
37,
13,
-75,
-11,
-17,
-65,
30,
39,
103,
144,
187,
74,
86,
-122,
-31,
-125,
-50,
36,
-38,
73,
223,
182,
114,
157,
49,
127,
97,
108,
33,
13,
19,
41,
140,
77,
221,
177,
180,
138,
76,
27,
-13,
-46,
-60,
-42,
-5,
39,
32,
240,
70,
108,
43,
31,
-40,
-77,
-6,
-35,
-48,
-13,
-11,
-20,
-29,
42,
-1,
-28,
-5,
17,
-26,
-34,
-29,
-7,
19,
-38,
-12,
54,
3,
65,
91,
77,
0,
-38,
-83,
8,
21,
-100,
-65,
40,
42,
140,
79,
126,
-22,
-13,
-95,
23,
87,
91,
-25,
-96,
51,
94,
101,
100,
-46,
-55,
-119,
23,
26,
29,
-19,
-70,
-92,
-51,
-37,
90,
-16,
-13,
-33,
-44,
24,
-66,
25,
-67,
-75,
-142,
-89,
24,
-42,
-10,
84,
29,
-26,
76,
69,
-30,
-129,
-132,
-84,
-53,
-16,
-34,
-19,
-47,
-3,
4,
28,
-167,
-92,
-74,
-35,
8,
4,
-21,
-20,
-1,
-75,
-10,
-19,
-106,
4,
-43,
40,
-19,
-12,
2,
12,
15,
5,
32,
29,
-60,
42,
-13,
-5,
-34,
-33,
-22,
-26,
106,
52,
105,
81,
45,
11,
28,
75,
27,
0,
-28,
-18,
34,
59,
112,
17,
-20,
17,
-43,
9,
31,
-20,
14,
-2,
-57,
-21,
-29,
-48,
89,
59,
90,
26,
23,
-15,
-33,
-46,
-112,
2,
-103,
1,
151,
168,
147,
60,
76,
10,
-64,
-54,
-25,
96,
156,
-52,
-94,
-132,
-1,
-64,
22,
-20,
-100,
-5,
147,
90,
101,
-176,
-344,
-471,
-234,
-301,
24,
-24,
-2,
-61,
-22,
55,
74,
-300,
-314,
-384,
-399,
-271,
5,
-11,
-89,
-179,
-7,
-22,
160,
-180,
-154,
-280,
-195,
-154,
-43,
-12,
46,
-142,
-240,
-153,
-97,
258,
3,
-46,
-298,
-89,
-53,
-27,
-36,
53,
-248,
-268,
-93,
77,
-23,
72,
-191,
-58,
-8,
-19,
-76,
-77,
-214,
-215,
-134,
-63,
52,
83,
-38,
-18,
15,
25,
-54,
-67,
-85,
-174,
-92,
-57,
-47,
132,
75,
39,
69,
-15,
-22,
-26,
-125,
-41,
-57,
118,
51,
48,
65,
10,
104,
-15,
-13,
-74,
-95,
-181,
15,
-35,
-12,
0,
70,
-6,
43,
-1,
-27,
-52,
23,
-28,
34,
69,
119,
1,
-31,
7,
56,
-32,
-31,
-97,
0,
22,
42,
34,
218,
130,
251,
215,
113,
-42,
-79,
-81,
-140,
-102,
-51,
-31,
96,
216,
393,
218,
163,
-15,
-50,
-196,
-177,
-124,
1,
-176,
-59,
-103,
30,
131,
81,
-47,
-94,
-162,
-31,
-130,
-118,
-101,
-179,
-345,
-157,
-131,
-10,
-47,
-38,
-110,
-102,
-57,
31,
-19,
-133,
-201,
-211,
-36,
-55,
-28,
-6,
-98,
-136,
-45,
-52,
-33,
-135,
-175,
-163,
-34,
-63,
99,
138,
4,
-16,
-52,
-18,
-14,
-144,
4,
-53,
-72,
22,
33,
-25,
82,
155,
38,
-35,
36,
147,
12,
-46,
17,
-11,
11,
85,
46,
138,
148,
121,
23,
5,
144,
-5,
51,
-17,
-6,
-39,
25,
161,
4,
238,
183,
148,
140,
2,
18,
-38,
-29,
-46,
-18,
21,
119,
22,
45,
6,
18,
10,
-32,
-29,
-14,
-10,
9,
-43,
-91,
-99,
-113,
-104,
-76,
-38,
-59,
-47,
-41,
-86,
-165,
-117,
52,
99,
-32,
171,
133,
181,
139,
-20,
-31,
-77,
-219,
-103,
-96,
6,
133,
336,
392,
267,
194,
34,
-81,
-94,
-196,
-254,
-203,
72,
135,
444,
428,
261,
250,
82,
-57,
-78,
-111,
-79,
-156,
86,
148,
252,
183,
234,
287,
158,
-35,
41,
51,
44,
30,
125,
108,
44,
-3,
18,
13,
28,
33,
119,
126,
185,
67,
1,
63,
1,
-106,
-127,
-123,
-9,
-5,
100,
150,
124,
-7,
39,
3,
-27,
-124,
-89,
-93,
-98,
17,
93,
63,
131,
65,
-40,
106,
-27,
-61,
-105,
-146,
-106,
-54,
60,
198,
169,
79,
152,
27,
-5,
-19,
-61,
-38,
-65,
-25,
45,
59,
122,
132,
142,
118,
59,
-58,
55,
49,
32,
-7,
-21,
19,
59,
108,
178,
143,
91,
64,
98,
57,
18,
11,
20,
35,
-2,
-20,
-17,
-58,
44,
28,
27,
46,
7,
7,
30,
5,
7,
-46,
-27,
-72,
-102,
-41,
-65,
25,
-5,
1,
5,
-20,
-56,
-35,
-34,
-86,
-77,
-71,
-66,
-66,
-39,
28,
-6,
-21,
-46,
-47,
-23,
-26,
0,
-45,
-98,
-108,
-116,
16,
16,
-33,
17,
23,
-6,
-63,
-95,
21,
43,
-52,
-118,
27,
14,
-23,
53,
-42,
-88,
-14,
66,
127,
254,
104,
49,
19,
36,
20,
34,
26,
7,
32,
8,
80,
137,
64,
33,
18,
43,
62,
127,
93,
15,
13,
22,
58,
40,
-43,
41,
8,
55,
46,
17,
89,
36,
23,
-59,
-15,
-69,
20,
18,
24,
19,
62,
72,
-109,
-182,
-8,
51,
-24,
59,
-12,
-20,
18,
29,
46,
32,
-42,
-60,
-146,
-58,
-41,
-26,
-18,
-47,
28,
11,
-17,
20,
-13,
-6,
-14,
-29,
-39,
-28,
-5,
17,
-53,
-54,
-2,
-21,
-129,
-165,
-99,
-161,
26,
-16,
-125,
-98,
-26,
-64,
-188,
-48,
-75,
-136,
-247,
71,
-116,
-181,
47,
-12,
-56,
-29,
-78,
37,
191,
-26,
220,
153,
65,
95,
-92,
-81,
-139,
-166,
-48,
71,
48,
147,
-34,
295,
389,
123,
79,
95,
-12,
-48,
5,
91,
-11,
61,
220,
477,
452,
477,
263,
277,
-116,
23,
187,
161,
10,
113,
305,
286,
339,
182,
154,
-8,
12,
116,
165,
295,
254,
-1,
67,
78,
-25,
110,
-25,
15,
59,
139,
245,
624,
417,
69,
46,
17,
45,
28,
61,
-128,
69,
231,
174,
148,
241,
127,
154,
-43,
-65,
-8,
-16,
-85,
-34,
49,
100,
272,
-9,
22,
25,
-191,
-224,
-203,
8,
-50,
47,
13,
164,
228,
134,
23,
-154,
-196,
-217,
-162,
8,
44,
-81,
42,
82,
86,
162,
204,
17,
-35,
-88,
-38,
-28,
13,
-30,
-18,
-24,
27,
10,
-94,
7,
6,
36,
-2,
20,
6,
-22,
-3,
-65,
43,
102,
14,
10,
3,
-54,
-60,
-14,
48,
-36,
37,
17,
48,
152,
12,
-20,
7,
-114,
-137,
-15,
21,
-36,
44,
13,
124,
183,
156,
-4,
-179,
-122,
-236,
-201,
0,
-42,
26,
102,
221,
179,
112,
-11,
-244,
-154,
-197,
-149,
15,
-7,
-8,
203,
288,
97,
196,
-10,
-193,
-42,
-150,
-54,
-17,
-9,
-89,
143,
139,
10,
-65,
-89,
16,
31,
79,
106,
-12,
28,
-69,
-87,
-105,
-138,
-143,
-67,
38,
-8,
129,
97,
-81,
28,
-20,
-171,
-159,
-234,
-161,
76,
14,
54,
109,
56,
-25,
50,
15,
-189,
-82,
-64,
-84,
-82,
-90,
-57,
58,
60,
26,
3,
12,
-144,
-12,
-89,
-129,
-86,
-121,
-87,
-1,
53,
62,
-39,
-32,
-7,
4,
-70,
-108,
-141,
-66,
-99,
-34,
50,
20,
-10,
-30,
-49,
-15,
-34,
-57,
-39,
13,
-33,
26,
28,
6,
-8,
-7,
-40,
-19,
-53,
-29,
-15,
59,
16,
-2,
40,
20,
-33,
-72,
-59,
-7,
-18,
-20,
-14,
-13,
128,
83,
22,
32,
-6,
-49,
-98,
-34,
47,
63,
-22,
57,
115,
51,
10,
20,
-27,
-34,
27,
-9,
-50,
23,
71,
67,
67,
57,
-15,
-29,
-16,
7,
-7,
29,
15,
87,
188,
110,
102,
130,
84,
-17,
24,
25,
101,
90,
36,
1,
47,
96,
79,
-3,
25,
-32,
47,
126,
174,
183,
125,
28,
7,
-49,
55,
60,
22,
3,
20,
61,
111,
149,
219,
103,
140,
14,
-13,
-4,
-3,
2,
15,
72,
91,
50,
-39,
120,
0,
-28,
26,
-65,
-30,
-12,
-14,
38,
112,
127,
38,
8,
97,
-17,
-13,
0,
-34,
-51,
-15,
30,
-26,
18,
62,
20,
-33,
-62,
-77,
-39,
-23,
-5,
14,
-36,
18,
59,
-97,
-73,
104,
69,
5,
5,
91,
-28,
12,
-17,
-11,
94,
1,
162,
-38,
99,
-24,
63,
158,
10,
16,
-28,
-92,
-116,
-6,
16,
6,
-250,
-134,
68,
-6,
-22,
73,
-65,
-28,
-132,
-85,
-83,
-185,
-352,
-345,
-131,
-58,
-70,
-62,
-72,
-57,
-32,
23,
-68,
-342,
-396,
-538,
-178,
-172,
51,
-85,
-1,
-291,
-88,
17,
39,
-91,
-141,
-264,
-133,
-74,
-85,
-80,
-74,
-236,
-319,
-196,
37,
97,
30,
-136,
-10,
-60,
-38,
30,
25,
-231,
-243,
-184,
-76,
-80,
0,
-73,
-57,
-1,
2,
-12,
-50,
-12,
-87,
-108,
59,
81,
-15,
85,
42,
-47,
-61,
45,
11,
19,
-28,
45,
62,
153,
93,
60,
69,
64,
-85,
14,
1,
43,
-26,
-14,
104,
-19,
160,
149,
68,
62,
-33,
-19,
17,
0,
-8,
103,
-130,
125,
-2,
39,
59,
-1,
19,
-24,
14,
17,
-24,
-8,
11,
-73,
0,
-30,
107,
98,
-34,
27,
-22,
-42,
-101,
17,
33,
133,
153,
406,
132,
166,
41,
-7,
-54,
-50,
-91,
-200,
-83,
-123,
-20,
195,
156,
257,
92,
1,
-90,
-17,
-63,
-287,
-148,
-77,
-337,
-184,
12,
-50,
38,
-63,
-36,
-38,
-124,
32,
-72,
-296,
-410,
-565,
-482,
-249,
30,
-54,
-40,
-170,
20,
-97,
-70,
-196,
-341,
-482,
-412,
-226,
-98,
-16,
98,
-131,
-153,
-116,
-155,
26,
-49,
-253,
-298,
-202,
-53,
14,
71,
-20,
-244,
-31,
5,
-57,
-243,
-122,
-162,
-68,
4,
-20,
52,
25,
-105,
47,
-55,
-35,
-15,
-140,
-60,
-1,
-58,
13,
-40,
-102,
-1,
-112,
-139,
-94,
85,
159,
250,
-27,
-2,
-22,
49,
55,
-34,
-45,
24,
51,
106,
233,
208,
31,
113,
20,
8,
-44,
-10,
45,
57,
74,
210,
108,
88,
51,
68,
-13,
-42,
-44,
-18,
-63,
-94,
-36,
42,
25,
6,
11,
-5,
-9,
-23,
-74,
-105,
-140,
-101,
-108,
16,
75,
-5,
44,
80,
-17,
-34,
-68,
-145,
-106,
-182,
-40,
-5,
-73,
-26,
33,
73,
-53,
-63,
3,
-46,
-11,
-46,
-157,
-134,
-206,
-147,
-160,
56,
-46,
-20,
19,
63,
0,
45,
-18,
-22,
-158,
-245,
-157,
53,
-71,
-49,
-60,
35,
137,
122,
-61,
45,
-50,
-159,
-122,
-26,
-26,
21,
32,
-29,
114,
30,
92,
14,
-23,
-10,
-54,
-39,
51,
34,
1,
42,
88,
-41,
46,
44,
50,
-11,
-24,
-32,
38,
-12,
118,
-72,
-54,
-34,
36,
38,
-24,
-33,
10,
-21,
-25,
-45,
6,
-49,
-16,
42,
12,
-57,
52,
20,
76,
17,
-10,
-57,
-74,
10,
-38,
24,
85,
-50,
2,
-28,
21,
52,
-51,
9,
-35,
9,
-14,
-56,
-20,
0,
-58,
-2,
-30,
42,
-5,
-4,
14,
11,
-17,
7,
10,
58,
-15,
-4,
40,
2,
-2,
18,
-8,
19,
24,
32,
16,
10,
-39,
24,
-6,
-22,
13,
-20,
-45,
-125,
-8,
-42,
-40,
12,
3,
51,
-26,
31,
-19,
-4,
-42,
-133,
-35,
-92,
-80,
-103,
19,
-4,
-13,
-1,
-24,
-2,
-57,
-42,
-16,
-45,
-82,
-147,
-116,
-24,
-74,
35,
-40,
21,
-53,
72,
-134,
-108,
-44,
-78,
-56,
18,
14,
20,
18,
-12,
-2,
20,
28,
-12,
29,
-166,
-165,
-60,
-1,
14,
32,
-24,
65,
-25,
-18,
41,
-71,
-82,
41,
-35,
23,
23,
1,
-45,
-37,
0,
-15,
-61,
-9,
-148,
-55,
-3,
6,
-35,
38,
-34,
-62,
-44,
-104,
-63,
14,
-4,
63,
-30,
-13,
-44,
10,
29,
0,
49,
-35,
-76,
51,
-3,
43,
-3,
33,
6,
-10,
15,
8,
25,
54,
-11,
22,
-7,
-27,
-22,
-4,
24,
-9,
-38,
-36,
-27,
-19,
-7,
-10,
33,
-20,
-42,
-1,
-8,
-45,
-20,
-51,
0,
-48,
-52,
31,
63,
95,
110,
65,
23,
-40,
-38,
-37,
-38,
-92,
-81,
-112,
-50,
61,
-13,
83,
113,
-50,
-41,
-15,
-82,
61,
-9,
-134,
-29,
-56,
0,
-31,
25,
-36,
17,
3,
101,
86,
-5,
-105,
-88,
-85,
-62,
-74,
80,
-67,
35,
-80,
-77,
-2,
-126,
-38,
-62,
-138,
-116,
-59,
14,
-43,
-20,
-13,
88,
-31,
38,
14,
-15,
11,
-59,
-27,
-89,
-2,
68,
-4,
23,
82,
-64,
-10,
-107,
-96,
-51,
-59,
-33,
-13,
31,
-14,
-18,
-44,
52,
11,
-101,
-17,
-58,
14,
-19,
20,
59,
15,
-65,
-19,
-27,
-39,
-99,
11,
57,
0,
-3,
-4,
-25,
-9,
57,
39,
-4,
48,
75,
-20,
-14,
39,
-2,
-36,
-13,
-9,
80,
92,
7,
-29,
-9,
0,
1,
8,
3,
0,
-21,
-8,
5,
5,
-53,
19,
-17,
-122,
-68,
41,
50,
-14,
37,
48,
56,
-65,
-43,
-67,
-138,
78,
109,
25,
4,
-12,
-32,
-102,
-135,
48,
127,
47,
197,
153,
176,
173,
68,
23,
-98,
-171,
-57,
5,
146,
105,
187,
343,
359,
230,
54,
-34,
-62,
-124,
-56,
-108,
242,
130,
179,
315,
307,
213,
148,
15,
22,
-45,
-93,
-97,
46,
208,
221,
107,
154,
249,
137,
28,
79,
229,
90,
33,
91,
203,
22,
-191,
-67,
11,
-38,
60,
107,
125,
107,
157,
-1,
9,
-63,
-167,
-127,
-15,
-32,
7,
43,
69,
149,
33,
63,
7,
-137,
-47,
-94,
-90,
-53,
15,
104,
118,
123,
24,
-48,
38,
77,
-75,
7,
-80,
-103,
-17,
20,
77,
231,
182,
171,
20,
132,
-42,
-26,
-39,
-49,
39,
56,
35,
0,
-25,
-34,
107,
-56,
-80,
-28,
-13,
58,
-21,
0,
13,
-2,
6,
5,
24,
65,
38,
88,
62,
1,
-28,
-48,
-53,
0,
3,
-6,
121,
33,
53,
-65,
76,
83,
-2,
-50,
-2,
50,
110,
88,
176,
185,
238,
216,
176,
85,
-27,
-53,
-42,
15,
79,
86,
127,
218,
203,
283,
169,
109,
-35,
-40,
-73,
35,
24,
83,
201,
138,
282,
182,
101,
92,
2,
45,
91,
159,
51,
89,
113,
183,
197,
113,
68,
43,
-15,
10,
2,
105,
12,
-64,
-58,
-5,
43,
-35,
-7,
-21,
27,
47,
85,
93,
142,
-1,
19,
7,
-37,
-24,
-92,
-51,
22,
57,
26,
-20,
73,
93,
-65,
-148,
-60,
-117,
-80,
-79,
31,
71,
71,
-13,
-53,
37,
15,
-76,
-134,
-5,
28,
-36,
0,
42,
132,
141,
41,
34,
-131,
-181,
-44,
-15,
-13,
-4,
-34,
-42,
-57,
7,
54,
110,
67,
63,
46,
14,
9,
-10,
4,
-29,
-13,
-16,
-32,
-78,
10,
78,
63,
125,
54,
25,
-5,
-9,
-31,
-120,
-64,
-59,
14,
-128,
-128,
-67,
46,
75,
-47,
-41,
24,
-40,
-109,
-134,
25,
24,
36,
17,
5,
30,
11,
-84,
-96,
-11,
-6,
75,
130,
208,
240,
164,
108,
71,
-66,
-6,
-74,
-89,
-42,
64,
125,
299,
476,
372,
27,
-11,
-34,
-40,
-59,
45,
95,
156,
355,
416,
485,
300,
196,
76,
20,
81,
166,
161,
90,
-10,
132,
314,
169,
63,
113,
19,
44,
236,
315,
223,
128,
134,
37,
116,
26,
50,
-13,
-5,
24,
27,
121,
177,
256,
157,
-123,
30,
-88,
-52,
-25,
1,
24,
78,
153,
-61,
2,
142,
7,
-11,
35,
-34,
6,
2,
-14,
111,
92,
153,
76,
-13,
-73,
-72,
-106,
-22,
-80,
-20,
-15,
-37,
-59,
25,
63,
86,
-21,
-17,
-9,
-8,
-31,
-16,
2,
-30,
-3,
-11,
-134,
-67,
22,
103,
-1,
-75,
0,
13,
-14,
-23,
-41,
44,
-32,
-62,
-111,
-25,
-111,
-64,
-1,
-46,
-19,
-23,
18,
-13,
-5,
25,
-238,
-257,
-308,
-234,
-118,
28,
9,
5,
95,
27,
3,
-19,
-282,
-372,
-500,
-300,
-73,
-83,
-21,
-2,
-17,
92,
-56,
-47,
-207,
-234,
-340,
-147,
-116,
60,
-49,
7,
-68,
-1,
-20,
-32,
-75,
3,
-32,
-35,
32,
16,
-40,
45,
-64,
11,
13,
-67,
-26,
155,
103,
-44,
23,
-44,
-13,
-62,
31,
-90,
-4,
33,
185,
-4,
119,
-57,
2,
-56,
-8,
-26,
-92,
-107,
-14,
-159,
88,
110,
13,
85,
26,
-52,
-14,
-32,
124,
51,
-161,
-91,
-133,
65,
36,
43,
93,
-67,
-2,
10,
44,
40,
24,
-48,
-49,
-4,
-60,
41,
87,
-33,
-22,
-21,
-11,
-6,
13,
48,
-54,
3,
-17,
-11,
47,
2,
1,
-14,
-62,
3,
-34,
-125,
-50,
19,
63,
20,
-22,
25,
-29,
17,
-70,
-17,
10,
-167,
-144,
-22,
-146,
-84,
-18,
54,
-24,
26,
71,
138,
144,
-10,
-101,
-161,
-200,
-189,
-242,
-34,
-13,
-42,
48,
275,
203,
151,
-131,
-185,
-175,
-362,
-267,
93,
-70,
-3,
137,
237,
327,
229,
-83,
-268,
-130,
-327,
-232,
22,
-6,
-20,
218,
76,
161,
236,
-139,
-124,
-59,
-176,
-98,
-40,
-2,
-37,
51,
-3,
19,
18,
-55,
-73,
0,
91,
46,
16,
-5,
-91,
-85,
-151,
-24,
-31,
24,
62,
143,
101,
32,
-36,
-5,
-150,
-75,
-255,
-145,
-37,
105,
33,
54,
-7,
92,
81,
52,
0,
-190,
-71,
-63,
-130,
3,
-63,
-82,
-20,
86,
87,
-3,
-52,
-1,
-72,
-180,
8,
-99,
-88,
-136,
-97,
-62,
86,
-40,
26,
-75,
-14,
-56,
-26,
-154,
-76,
-129,
-50,
-57,
36,
-14,
-37,
-10,
-13,
-62,
-67,
-58,
-76,
-64,
-114,
-34,
-25,
-3,
-63,
-30,
-35,
-159,
-87,
-36,
10,
65,
46,
167,
90,
-22,
-95,
-83,
-104,
-193,
-227,
-29,
41,
196,
158,
281,
186,
-29,
-71,
-48,
-94,
-105,
-180,
-79,
-7,
234,
295,
181,
178,
-59,
-14,
-100,
-60,
31,
-112,
-52,
91,
120,
33,
103,
359,
-46,
0,
-64,
-96,
-103,
-99,
-39,
12,
-8,
-127,
-60,
66,
-30,
41,
138,
117,
109,
54,
220,
89,
-72,
-157,
-112,
-75,
27,
26,
87,
31,
51,
121,
-40,
-135,
-189,
-150,
-3,
-84,
2,
51,
89,
-66,
-144,
-139,
-104,
-231,
-195,
-69,
-101,
-75,
7,
31,
60,
44,
-42,
-187,
-160,
18,
-36,
2,
-47,
-53,
-19,
14,
117,
62,
100,
129,
48,
87,
154,
-2,
144,
59,
5,
-15,
25,
72,
107,
70,
48,
180,
50,
31,
82,
60,
8,
44,
35,
26,
58,
91,
62,
-16,
8,
51,
-5,
-5,
13,
6,
50,
-9,
-54,
98,
95,
34,
43,
-36,
-37,
-53,
8,
-19,
17,
101,
7,
102,
157,
44,
4,
-25,
-32,
17,
-14,
-45,
-26,
79,
47,
70,
126,
70,
23,
-144,
-135,
28,
-22,
0,
65,
104,
16,
7,
50,
26,
-79,
-179,
-122,
42,
6,
-16,
73,
101,
-81,
-79,
51,
-74,
-116,
-122,
-33,
-21,
-15,
22,
20,
45,
-47,
13,
46,
91,
9,
-59,
28,
-42,
-7,
47,
66,
110,
54,
30,
20,
-15,
9,
70,
61,
19,
0,
24,
1,
70,
-6,
-50,
-86,
-59,
89,
-33,
-68,
31,
5,
24,
-6,
3,
85,
-98,
-112,
-8,
-13,
46,
-17,
24,
6,
-41,
-56,
-53,
-96,
-78,
-168,
-80,
8,
3,
-3,
34,
-19,
-26,
13,
-12,
-34,
-75,
-111,
-18,
-50,
-16,
-7,
-7,
10,
47,
66,
52,
76,
42,
-28,
9,
38,
106,
-13,
-22,
12,
20,
-18,
-60,
-96,
-88,
-65,
-43,
-56,
-85,
33,
-28,
23,
-9,
-21,
-136,
-68,
-130,
-92,
-57,
-83,
-28,
0,
-19,
5,
-2,
-5,
-90,
-122,
-35,
-54,
-111,
-125,
-59,
-11,
10,
-32,
12,
-2,
-120,
-36,
-74,
-42,
65,
13,
72,
24,
-33,
-40,
-2,
-66,
-38,
-134,
122,
91,
57,
114,
53,
11,
22,
-46,
-7,
-35,
-114,
68,
77,
51,
61,
150,
19,
-40,
10,
-20,
-33,
71,
4,
-68,
-3,
61,
108,
206,
75,
66,
30,
0,
-6,
-4,
14,
76,
49,
-70,
81,
63,
-4,
-10,
26,
-8,
-59,
1,
-65,
135,
226,
121,
-66,
-36,
-55,
-35,
27,
16,
1,
-8,
-14,
57,
10,
19,
-34,
6,
-65,
-1,
-12,
9,
16,
-8,
-10,
-35,
-53,
-1,
-14,
-56,
3,
24,
-12,
1,
29,
68,
95,
84,
29,
-17,
-40,
4,
35,
76,
22,
30,
18,
-42,
-109,
-168,
-148,
-199,
-109,
-69,
-151,
-77,
-85,
11,
-44,
-74,
-162,
-182,
-157,
-111,
-73,
-51,
32,
18,
-50,
4,
-35,
-41,
-92,
-145,
-82,
26,
31,
66,
-55,
6,
-51,
-49,
-20,
-68,
-100,
-70,
-130,
95,
212,
250,
131,
123,
121,
-25,
-44,
-84,
-137,
-127,
41,
179,
177,
179,
59,
44,
20,
2,
-46,
-115,
-117,
-86,
51,
156,
223,
125,
-5,
-70,
39,
-2,
-32,
-184,
-141,
-78,
-60,
-48,
-15,
-13,
-35,
-10,
-27,
-6,
-30,
-175,
-249,
-122,
-13,
-45,
108,
61,
-3,
-13,
-9,
-21,
-60,
-81,
-79,
-90,
-111,
19,
68,
79,
107,
-26,
-42,
15,
15,
-43,
-142,
-87,
-17,
55,
106,
42,
51,
25,
37,
-14,
18,
-8,
29,
-21,
-57,
-57,
-86,
-30,
-25,
31,
19,
21,
18,
13,
34,
0,
-10,
10,
-6,
28,
13,
15,
12,
30,
23,
0,
28,
-31,
-24,
-37,
-123,
-20,
-16,
-6,
20,
-4,
31,
-31,
16,
-44,
-142,
-111,
-58,
37,
0,
-38,
-12,
9,
-4,
12,
3,
-58,
-76,
-83,
-13,
-7,
21,
-41,
3,
-16,
-13,
29,
27,
10,
-86,
-70,
-30,
-80,
-61,
-12,
-19,
-5,
-10,
23,
15,
-13,
-38,
15,
67,
-23,
-69,
-50,
-20,
25,
37,
-19,
-9,
26,
-17,
44,
80,
0,
15,
-38,
-19,
17,
11,
-1,
-8,
-58,
90,
-3,
81,
112,
15,
-4,
-18,
7,
6,
20,
30,
-3,
-7,
11,
34,
96,
53,
-1,
4,
0,
-7,
-13,
-11,
-2,
21,
-81,
-8,
6,
40,
-19,
38,
-5,
6,
-7,
-26,
-35,
54,
0,
106,
48,
10,
17,
-12,
9,
9,
-15,
-3,
-28,
-3,
-55,
-14,
-42,
19,
-15,
-17,
29,
-23,
106,
82,
57,
106,
164,
71,
95,
114,
97,
19,
0,
-14,
102,
214,
236,
204,
103,
-101,
34,
0,
-62,
-14,
-9,
57,
22,
143,
250,
175,
195,
0,
-73,
-23,
-36,
-56,
-8,
112,
26,
131,
170,
135,
147,
-171,
-283,
-226,
-110,
-80,
5,
93,
173,
122,
78,
-6,
129,
-156,
-321,
-277,
-165,
-61,
6,
21,
272,
140,
103,
141,
53,
-90,
-256,
-167,
-111,
53,
34,
-40,
250,
224,
106,
227,
156,
-30,
-124,
27,
196,
77,
32,
-79,
33,
240,
206,
80,
-11,
69,
50,
40,
16,
1,
5,
-42,
61,
97,
120,
22,
8,
116,
-5,
20,
-29,
1,
3,
-11,
4,
-50,
-3,
-14,
-39,
47,
20,
26,
0,
-32,
6,
17,
-41,
21,
-77,
-145,
-110,
-24,
-63,
55,
3,
-34,
26,
19,
-13,
19,
-80,
-71,
-163,
-33,
-23,
11,
-39,
-2,
25,
18,
69,
57,
-66,
-29,
-10,
64,
86,
45,
-9,
26,
32,
-29,
-90,
-78,
-91,
-95,
-20,
-89,
-51,
-145,
-80,
-24,
-9,
-63,
-40,
-50,
-51,
-68,
43,
37,
89,
-31,
-19,
-41,
-20,
-25,
11,
10,
49,
59,
56,
53,
100,
53,
-28,
3,
-43,
-14,
-41,
-33,
50,
96,
251,
126,
41,
-14,
31,
-39,
-16,
-11,
-85,
-96,
-91,
129,
172,
162,
33,
-24,
-32,
-31,
-13,
-4,
-62,
-116,
-88,
36,
112,
55,
4,
69,
-17,
12,
-26,
-28,
-23,
-89,
-106,
74,
-70,
-33,
147,
65,
1,
16,
-17,
-42,
-148,
-169,
-236,
-78,
-41,
21,
-5,
0,
28,
6,
-7,
-81,
-47,
-58,
-77,
-30,
-56,
-3,
76,
-2,
-13,
25,
4,
10,
-29,
-95,
-78,
-21,
-54,
67,
-16,
-8,
17,
-12,
-7,
-3,
15,
19,
-38,
-29,
-56,
-9,
1,
8,
-11,
12,
18,
-19,
14,
1,
-41,
13,
144,
155,
142,
37,
-2,
9,
5,
3,
-22,
6,
0,
-71,
41,
64,
51,
103,
20,
19,
-16,
-35,
-28,
-86,
-53,
39,
194,
146,
251,
232,
163,
99,
-10,
-41,
-81,
-75,
-116,
39,
57,
147,
151,
193,
91,
-8,
5,
-54,
-181,
-202,
-151,
-126,
124,
174,
144,
19,
-53,
-69,
-41,
-81,
-181,
-277,
-116,
35,
34,
44,
5,
-155,
-133,
-88,
-33,
-76,
-199,
-261,
-198,
-39,
-44,
-1,
-56,
-91,
-27,
-46,
-28,
-2,
-168,
-152,
-94,
-56,
-71,
-84,
32,
-35,
13,
7,
6,
-35,
-86,
-205,
-86,
87,
-33,
158,
15,
-13,
12,
65,
1,
33,
33,
112,
-16,
42,
93,
127,
67,
-34,
-5,
0,
-3,
13,
21,
9,
93,
228,
228,
143,
70,
19,
-22,
-14,
-1,
-16,
-26,
-51,
20,
-46,
13,
2,
11,
-55,
-24,
-35,
-14,
-21,
-27,
22,
52,
27,
3,
15,
-42,
-23,
-18,
-5,
-23,
-15,
12,
-56,
-3,
31,
-10,
-5,
-52,
-65,
-31,
-37,
-2,
-14,
-21,
13,
-32,
4,
-71,
-132,
-43,
-89,
38,
-31,
-8,
-1,
8,
0,
-4,
47,
91,
18,
29,
-5,
64,
10,
2,
12,
1,
0,
-17,
-50,
30,
106,
82,
11,
17,
56,
12,
-6,
12,
-11,
-121,
-49,
40,
84,
44,
86,
13,
-14,
10,
2,
49,
-119,
-176,
31,
-15,
1,
98,
48,
22,
-12,
-16,
-5,
-31,
-74,
-32,
-50,
-52,
76,
72,
59,
-45,
-16,
13,
8,
-50,
77,
-75,
8,
-26,
23,
78,
7,
12,
15,
10,
-24,
-22,
-95,
-10,
88,
27,
0,
-37,
-48,
17,
-20,
-10,
15,
18,
-10,
1,
-53,
20,
-6,
-43,
-49,
-17,
3,
-22,
-13,
-15,
46,
6,
-2,
0,
-71,
-26,
-16,
0,
-12,
33,
38,
68,
-8,
-102,
-7,
-23,
23,
94,
6,
19,
24,
23,
39,
37,
-25,
-225,
-427,
-209,
-162,
-64,
-24,
-27,
49,
16,
-46,
-87,
-287,
-312,
-363,
-214,
-89,
38,
83,
56,
197,
-19,
-50,
-97,
-214,
-281,
-484,
-305,
110,
228,
252,
168,
-21,
-30,
-87,
-138,
-339,
-450,
-375,
-121,
215,
318,
239,
146,
-64,
-5,
-35,
-270,
-235,
-443,
-309,
117,
338,
167,
156,
62,
55,
-47,
-69,
-150,
-312,
-400,
-218,
64,
197,
183,
178,
53,
-15,
-46,
-29,
58,
-206,
-342,
-41,
44,
99,
178,
52,
95,
22,
-2,
-5,
42,
-117,
26,
90,
8,
50,
138,
23,
-13,
82,
8,
-2,
38,
-97,
160,
316,
211,
165,
99,
-99,
-60,
2,
-8,
-47,
-106,
-60,
179,
223,
241,
125,
-7,
-49,
-96,
-35,
19,
-4,
-38,
21,
-34,
-34,
49,
36,
-44,
-34,
-20,
-4,
25,
18,
89,
64,
6,
54,
55,
-15,
49,
16,
45,
17,
32,
52,
107,
62,
24,
-67,
-80,
-165,
-18,
-34,
24,
-41,
-1,
74,
119,
53,
-74,
-76,
-74,
-235,
-107,
-41,
-68,
-4,
17,
42,
138,
51,
-80,
-195,
-178,
-272,
-226,
-94,
-105,
12,
11,
79,
83,
55,
-162,
-146,
-178,
-307,
-320,
-90,
-80,
-42,
-28,
84,
44,
89,
-70,
-53,
-104,
-194,
-88,
0,
88,
53,
-22,
151,
125,
146,
192,
106,
20,
-33,
3,
-4,
83,
64,
-27,
148,
239,
189,
175,
323,
226,
2,
140,
114,
78,
114,
-10,
111,
129,
191,
276,
216,
61,
-73,
-5,
-39,
-49,
49,
0,
-52,
67,
290,
145,
-77,
-6,
-97,
-41,
-74,
-53,
23,
0,
-22,
66,
110,
16,
-14,
-41,
-94,
-65,
-50,
-52,
1,
20,
8,
-28,
6,
-9,
-54,
-46,
-58,
-38,
-27,
-17,
23,
14,
12,
0,
-19,
-47,
-83,
-17,
23,
-2,
-49,
-4,
8,
-11,
-35,
-61,
-75,
-120,
-169,
-64,
-87,
-46,
-55,
-77,
-26,
-14,
-28,
-50,
-116,
-98,
-130,
-96,
-43,
-28,
37,
-45,
-31,
-14,
-24,
-54,
-57,
-123,
-66,
-70,
0,
156,
146,
64,
3,
6,
-28,
-68,
-115,
-72,
-47,
176,
212,
153,
102,
68,
76,
-3,
-45,
-134,
-154,
-135,
-18,
125,
171,
127,
50,
12,
29,
3,
-15,
-108,
-186,
-110,
0,
133,
89,
82,
44,
1,
8,
-27,
-63,
-107,
-119,
-146,
-72,
19,
33,
72,
59,
-7,
-39,
-16,
-25,
-34,
-78,
-142,
-38,
-2,
98,
78,
3,
-2,
12,
10,
-18,
-86,
-62,
76,
31,
51,
0,
54,
-22,
-17,
-14,
-2,
24,
10,
-8,
-43,
72,
76,
114,
-30,
0,
-6,
27,
-4,
5,
36,
49,
37,
27,
-24,
-67,
9,
-15,
-14,
1,
17,
10,
14,
72,
62,
146,
-4,
57,
25,
41,
1,
30,
40,
27,
-32,
-16,
149,
154,
90,
39,
0,
0,
-42,
-40,
-1,
36,
115,
119,
136,
248,
129,
58,
35,
-4,
-7,
35,
-22,
11,
224,
105,
185,
218,
228,
66,
-22,
-162,
62,
15,
-45,
46,
167,
169,
96,
219,
66,
-3,
-146,
-67,
-2,
-41,
7,
62,
187,
103,
-59,
-113,
192,
-105,
-182,
-72,
-27,
11,
24,
103,
48,
90,
13,
-22,
112,
-42,
-71,
60,
-123,
-53,
35,
31,
58,
-19,
74,
22,
-27,
-78,
103,
46,
28,
-50,
17,
-42,
-42,
-25,
-149,
-125,
-177,
89,
-32,
53,
-47,
-2,
-41,
-83,
-28,
-116,
-195,
-362,
-95,
11,
84,
-76,
32,
37,
2,
-14,
-21,
-57,
-69,
-126,
-141,
-24,
-50,
-16,
40,
-4,
-10,
-1,
9,
-1,
-5,
-42,
-50,
-25,
-40,
11,
11,
-7,
28,
15,
-19,
47,
113,
165,
188,
181,
119,
40,
21,
38,
-6,
-33,
74,
60,
104,
118,
9,
46,
-42,
4,
47,
-27,
-5,
3,
-31,
124,
78,
172,
149,
186,
56,
-14,
-64,
-56,
-11,
29,
-4,
99,
143,
38,
307,
195,
2,
-31,
-51,
-42,
-3,
44,
113,
23,
-22,
-17,
230,
52,
5,
-82,
-139,
-67,
-19,
-22,
163,
39,
12,
-61,
84,
152,
-160,
-210,
-181,
15,
-13,
-41,
77,
3,
-176,
170,
384,
-11,
-74,
21,
162,
-11,
9,
-67,
-16,
-31,
22,
24,
122,
175,
85,
183,
56,
18,
-1,
-17,
-98,
-57,
-167,
-62,
10,
99,
201,
99,
77,
50,
-24,
12,
-46,
-149,
-91,
-229,
-83,
97,
117,
70,
-6,
36,
-16,
3,
-55,
-77,
-140,
-109,
11,
-57,
39,
91,
51,
-54,
-13,
-15,
6,
-20,
-44,
-99,
-143,
-14,
26,
50,
-34,
12,
4,
16,
42,
46,
-14,
54,
15,
22,
27,
8,
55,
11,
29,
-2,
11,
36,
9,
-80,
-54,
-119,
-20,
-36,
44,
10,
0,
-21,
17,
-35,
1,
-51,
-27,
-79,
-101,
-93,
-85,
-10,
-33,
18,
4,
-38,
46,
-62,
-96,
-162,
-179,
-84,
-37,
-60,
-37,
18,
19,
-21,
-52,
-10,
43,
-110,
-136,
-43,
-45,
-40,
-16,
11,
13,
57,
13,
-4,
82,
53,
-60,
15,
6,
28,
-32,
2,
11,
13,
7,
128,
87,
131,
64,
67,
63,
81,
-22,
20,
84,
-27,
149,
144,
188,
144,
117,
27,
62,
26,
14,
12,
0,
55,
187,
117,
122,
190,
154,
41,
-31,
19,
4,
-64,
84,
146,
96,
80,
88,
137,
48,
-30,
12,
10,
13,
-17,
-46,
33,
112,
46,
9,
-25,
-44,
-28,
-17,
-28,
29,
6,
-2,
71,
-58,
-23,
-72,
-56,
-26,
0,
-7,
-16,
1,
-11,
35,
67,
45,
47,
-13,
-29,
-3,
-19,
-25,
10,
3,
-26,
-1,
9,
3,
7,
-4,
-32,
-23,
1,
-14,
-9,
9,
-23,
-5,
19,
-5,
13,
-24,
-67,
-26,
-41,
-5,
-47,
-28,
-19,
64,
24,
13,
41,
90,
39,
77,
-28,
53,
25,
-20,
36,
63,
8,
7,
31,
74,
-5,
-11,
21,
10,
-10,
-40,
10,
71,
0,
-59,
26,
41,
31,
-11,
-29,
-9,
-10,
-9,
0,
4,
-35,
-7,
67,
55,
-4,
50,
28,
34,
-31,
-19,
9,
-1,
-71,
9,
53,
-25,
-2,
68,
22,
1,
10,
-7,
29,
0,
34,
-9,
45,
-31,
77,
92,
83,
0,
27,
-24,
-33,
38,
-9,
-9,
-4,
22,
12,
-45,
11,
-25,
31,
7,
-19,
23,
0,
-35,
-27,
15,
-19,
-12,
-1,
-5,
0,
-2,
-13,
7,
37,
-11,
-56,
-70,
-32,
-34,
3,
8,
-19,
10,
26,
39,
9,
-10,
21,
57,
92,
28,
11,
21,
3,
11,
14,
27,
11,
-51,
14,
-76,
-106,
3,
-52,
25,
24,
15,
-1,
2,
11,
-76,
-184,
-96,
-97,
-30,
-37,
-16,
-31,
15,
-24,
46,
-78,
-74,
-133,
-132,
-95,
-53,
-39,
-37,
-7,
19,
-10,
11,
-87,
-101,
-190,
-52,
-94,
-72,
-60,
-33,
-54,
12,
24,
21,
-1,
-143,
-9,
11,
48,
-7,
-2,
-36,
-64,
-3,
64,
-35,
-10,
-38,
-39,
56,
73,
31,
16,
11,
31,
-45,
26,
52,
36,
-16,
124,
97,
147,
84,
11,
27,
31,
-15,
1,
69,
101,
53,
80,
74,
20,
165,
126,
33,
16,
6,
-3,
8,
66,
133,
117,
27,
38,
11,
77,
11,
6,
7,
-29,
17,
36,
118,
145,
86,
17,
-18,
-33,
1,
14,
-3,
15,
-8,
-8,
8,
-5,
-2,
-21,
-14,
26,
2,
2,
-12,
-22,
-50,
-70,
-117,
-82,
-77,
-16,
-15,
-49,
-41,
-25,
-2,
-65,
-65,
-115,
-179,
-133,
-9,
61,
86,
17,
8,
0,
-27,
-28,
-68,
-33,
-124,
-183,
74,
72,
104,
83,
-2,
-15,
-3,
-28,
-73,
-22,
-76,
-20,
204,
217,
267,
197,
141,
119,
-18,
-11,
-81,
-67,
-73,
37,
13,
247,
267,
253,
71,
-36,
0,
-77,
-127,
-211,
-171,
-199,
220,
182,
53,
-5,
-71,
-102,
0,
-25,
-204,
-355,
-267,
-134,
164,
17,
13,
-120,
-105,
-51,
0,
-73,
-95,
-309,
-293,
-81,
-141,
-146,
-38,
-32,
-76,
-53,
23,
-62,
-91,
-153,
-279,
-194,
-269,
-81,
-24,
52,
-11,
-9,
0,
-19,
-21,
-255,
-288,
-108,
5,
49,
19,
-10,
-1,
36,
13,
28,
3,
-92,
-222,
-31,
56,
103,
59,
5,
19,
25,
8,
-12,
-9,
84,
42,
24,
-31,
-47,
5,
8,
-54,
-43,
12,
34,
33,
0,
-22,
31,
3,
-26,
-21,
-31,
0,
33,
13,
5,
-9,
-50,
-119,
-90,
-118,
-23,
28,
0,
-55,
-31,
13,
-26,
-37,
-60,
-110,
-167,
-162,
-138,
-55,
-24,
11,
10,
-5,
-7,
-49,
-65,
-90,
-151,
-96,
-140,
-25,
0,
-11,
-49,
-23,
4,
-48,
-116,
-130,
-115,
-20,
20,
63,
90,
51,
29,
-16,
13,
-43,
-146,
-184,
-149,
66,
70,
27,
21,
-9,
-8,
0,
-4,
-52,
-144,
-130,
-38,
26,
66,
64,
-65,
2,
-4,
-6,
-6,
-21,
-68,
-58,
-104,
-55,
73,
53,
-10,
-20,
-31,
22,
4,
10,
18,
-55,
-50,
-59,
1,
56,
-1,
-24,
-10,
-21,
-15,
-11,
7,
72,
15,
-11,
104,
126,
86,
8,
-9,
14,
1,
-11,
-33,
-27,
14,
2,
22,
-8,
33,
15,
9,
0,
7,
3,
-4,
-5,
-48,
-68,
-57,
-62,
-8,
-12,
12,
22,
-8,
46,
40,
-3,
-26,
-49,
-63,
-46,
2,
50,
43,
-2,
-21,
-56,
-80,
-148,
-237,
-174,
-96,
-42,
-83,
-85,
-32,
-10,
-17,
-97,
-149,
-132,
-214,
-190,
-139,
-28,
44,
-45,
-39,
-42,
14,
-78,
-85,
-47,
-84,
-68,
-1,
60,
97,
-24,
-67,
-41,
0,
-91,
-116,
-110,
-73,
225,
206,
262,
237,
157,
96,
-40,
-60,
-93,
-197,
-121,
9,
168,
165,
286,
162,
104,
48,
1,
-14,
-127,
-213,
-254,
-55,
232,
275,
179,
-12,
37,
-14,
15,
-32,
-112,
-217,
-245,
-81,
140,
191,
96,
-42,
-53,
-16,
0,
-62,
-80,
-140,
-154,
-55,
-14,
17,
-10,
-5,
-62,
-2,
-4,
-58,
-105,
20,
-29,
-76,
59,
40,
102,
60,
-50,
5,
19,
39,
-24,
-91,
-126,
114,
167,
92,
-8,
50,
18,
7,
14,
16,
40,
36,
-12,
-6,
-55,
-41,
-35,
-6,
13,
11,
43,
78,
70,
107,
73,
71,
12,
77,
111,
73,
1,
3,
44,
51,
49,
105,
4,
111,
-4,
-77,
41,
-32,
41,
-5,
8,
34,
55,
56,
107,
11,
77,
-20,
-6,
-59,
86,
41,
17,
27,
112,
67,
28,
-16,
-76,
17,
-55,
-147,
-4,
58,
-1,
43,
203,
72,
-98,
-222,
-80,
-88,
-165,
-79,
7,
-38,
-9,
110,
153,
121,
-98,
-8,
-160,
-39,
-143,
-49,
76,
-61,
19,
152,
51,
190,
136,
-72,
22,
-19,
-19,
45,
96,
37,
13,
91,
85,
247,
111,
-97,
-17,
-4,
28,
55,
62,
32,
7,
30,
153,
128,
196,
70,
-106,
-43,
-103,
39,
-21,
27,
3,
34,
-1,
42,
155,
147,
-20,
-97,
-7,
-45,
-54,
28,
-30,
-53,
-7,
43,
31,
-46,
-10,
-58,
-35,
-81,
-4,
8,
20,
5,
-30,
-29,
-29,
-19,
-11,
-7,
-4,
-13,
18,
-9,
26,
26,
62,
94,
83,
91,
96,
-27,
42,
20,
79,
-12,
4,
22,
30,
133,
52,
-145,
-72,
-196,
-65,
-21,
0,
31,
-10,
81,
15,
-20,
-34,
-126,
-264,
-307,
-131,
-108,
-93,
82,
-13,
71,
1,
-3,
-99,
-212,
-307,
-286,
-360,
-7,
-49,
-65,
-22,
51,
69,
86,
-132,
-15,
-236,
-317,
-283,
-86,
64,
15,
-24,
62,
106,
155,
-24,
-196,
-195,
-63,
-49,
53,
130,
61,
26,
108,
259,
6,
120,
147,
40,
161,
95,
123,
31,
69,
30,
135,
117,
59,
280,
312,
57,
299,
212,
-16,
-50,
-13,
17,
11,
69,
281,
121,
130,
68,
123,
115,
-42,
-38,
9,
14,
-58,
204,
136,
203,
254,
45,
39,
-51,
16,
-7,
-10,
14,
27,
-72,
-40,
81,
131,
-14,
-54,
-131,
-82,
-73,
-19,
2,
8,
6,
17,
-98,
-110,
-108,
-75,
-99,
-3,
-12,
0,
9,
26,
39,
18,
2,
41,
11,
107,
96,
138,
65,
-3,
0,
46,
35,
-54,
-40,
-7,
-158,
-167,
-84,
75,
178,
-23,
-15,
0,
8,
-20,
-122,
-197,
-61,
37,
54,
42,
94,
83,
-2,
-11,
12,
-65,
-133,
-257,
19,
48,
97,
-5,
105,
11,
-9,
-8,
-7,
-150,
-256,
-316,
-86,
-59,
102,
59,
-10,
-109,
9,
9,
-27,
-95,
-306,
-213,
-55,
-26,
151,
-52,
-77,
-89,
-3,
-4,
-83,
-115,
-163,
-272,
32,
66,
35,
35,
55,
-40,
-42,
16,
72,
-42,
-85,
-66,
37,
-2,
89,
23,
6,
37,
-16,
-11,
16,
50,
87,
48,
69,
-7,
175,
36,
17,
26,
-14,
-11,
42,
96,
142,
26,
20,
152,
139,
84,
-27,
91,
-3,
-20,
-34,
0,
12,
108,
165,
118,
54,
62,
57,
-39,
8,
-27,
-28,
-14,
-20,
-33,
-96,
-8,
0,
38,
-15,
-14,
11,
-18,
-36,
-29,
-38,
-37,
-38,
-20,
-36,
14,
4,
-7,
10,
32,
20,
-58,
25,
25,
-77,
-93,
-18,
-9,
8,
-1,
14,
24,
-15,
5,
39,
3,
-113,
-30,
-10,
36,
4,
-31,
-5,
-66,
-40,
-139,
-151,
40,
-85,
-66,
64,
2,
115,
29,
20,
-83,
-104,
-103,
-125,
-20,
117,
244,
44,
54,
123,
-3,
53,
-12,
-168,
-5,
-40,
-96,
193,
207,
115,
3,
-13,
11,
32,
69,
62,
187,
44,
-240,
-37,
50,
-61,
61,
8,
-87,
-21,
9,
114,
178,
192,
87,
-159,
-146,
-17,
89,
22,
31,
-32,
14,
-2,
117,
17,
13,
126,
-37,
-130,
46,
-37,
53,
0,
-17,
26,
-18,
13,
96,
23,
33,
-106,
-74,
-35,
-2,
-25,
8,
-27,
81,
62,
98,
59,
-42,
-5,
-77,
18,
10,
0,
-14,
39,
85,
228,
63,
196,
188,
110,
-74,
-10,
-8,
28,
-5,
12,
18,
24,
-69,
-70,
-31,
-8,
24,
-29,
10,
22,
49,
6,
49,
-5,
-31,
-94,
-122,
-144,
-16,
-30,
-2,
-2,
57,
20,
125,
-1,
-3,
-151,
-14,
-153,
-5,
-51,
-24,
66,
27,
20,
67,
-97,
-68,
-105,
-209,
-137,
-47,
-22,
7,
5,
81,
28,
-129,
-186,
-262,
-122,
-122,
-132,
9,
-80,
0,
12,
-136,
-96,
-148,
-201,
-63,
-79,
61,
-67,
57,
-11,
47,
-16,
-94,
-83,
26,
-137,
-234,
-132,
8,
30,
-18,
-39,
-64,
-4,
-130,
-63,
18,
-112,
-169,
-182,
-33,
-45,
-20,
-47,
-59,
-39,
-22,
9,
-33,
-70,
-196,
-40,
-38,
-70,
-86,
-45,
-5,
-16,
-40,
-42,
6,
-88,
-157,
-51,
-114,
-59,
4,
-91,
-36,
21,
42,
10,
-145,
-104,
-1,
-24,
-80,
37,
-28,
-25,
-23,
8,
7,
32,
-57,
-119,
-116,
116,
29,
-11,
-7,
16,
11,
14,
7,
11,
-34,
-38,
-34,
-43,
-84,
-76,
-42,
-46,
0,
8,
31,
92,
87,
90,
70,
47,
-27,
-6,
30,
4,
-65,
32,
44,
25,
40,
193,
196,
18,
70,
128,
143,
77,
46,
20,
24,
92,
156,
240,
341,
227,
271,
112,
188,
105,
133,
41,
-12,
119,
121,
-4,
197,
191,
-5,
-184,
85,
75,
10,
57,
-8,
155,
309,
146,
-83,
-286,
-263,
-40,
-101,
29,
26,
-14,
0,
87,
320,
188,
-151,
-82,
-14,
64,
-10,
-12,
-113,
-16,
-55,
160,
205,
-15,
-211,
-215,
-141,
198,
129,
22,
1,
-35,
-40,
0,
90,
-89,
-92,
-82,
-171,
-55,
92,
-18,
-88,
12,
-12,
-17,
-79,
-90,
-264,
-258,
-236,
-226,
-158,
-82,
-33,
12,
37,
61,
-58,
-220,
-149,
-116,
-297,
-350,
-197,
-73,
-60,
8,
31,
-68,
-97,
0,
-221,
-97,
-46,
-134,
-42,
38,
15,
-13,
21,
23,
29,
-11,
-15,
8,
-45,
-28,
-60,
-7,
-16,
5,
11,
53,
32,
6,
21,
44,
28,
8,
-15,
17,
-7,
8,
23,
18,
-35,
-70,
72,
-50,
40,
20,
23,
-14,
-7,
5,
30,
-47,
-63,
-137,
-133,
-93,
170,
53,
38,
-51,
-20,
26,
40,
-76,
40,
-196,
-255,
-101,
127,
128,
6,
75,
27,
-10,
75,
-73,
-29,
-3,
-61,
-176,
30,
250,
59,
-19,
48,
48,
83,
32,
50,
122,
-156,
-193,
-38,
152,
18,
0,
-3,
17,
3,
25,
43,
58,
-119,
-183,
-136,
47,
67,
-13,
-45,
2,
-16,
7,
50,
5,
-38,
-60,
-43,
-68,
36,
-12,
-7,
19,
-13,
7,
-6,
-6,
-12,
-51,
-55,
-85,
-28,
-59,
-49,
-5,
-4,
-7,
-73,
-43,
-157,
-49,
-108,
-6,
-95,
-26,
-27,
-16,
-14,
-4,
2,
-131,
-92,
30,
-105,
-71,
-67,
-41,
-43,
-3,
-19,
-22,
-19,
-19,
-85,
-51,
-57,
-106,
-67,
-37,
-41,
6,
-68,
-39,
0,
-184,
-203,
-87,
-100,
-69,
-70,
50,
-60,
9,
-160,
-98,
-167,
-5,
-209,
-265,
-54,
135,
33,
104,
-50,
6,
-139,
-7,
-75,
-215,
18,
-29,
-27,
184,
66,
188,
28,
-60,
-26,
-216,
-86,
-290,
29,
149,
145,
191,
37,
113,
-78,
-55,
-12,
-67,
14,
32,
-141,
0,
278,
-23,
10,
68,
-74,
21,
-50,
15,
215,
87,
-85,
-171,
-147,
-11,
82,
191,
0,
41,
60,
188,
318,
-52,
-116,
-150,
12,
109,
188,
139,
-24,
34,
8,
40,
192,
70,
195,
140,
50,
26,
139,
-42,
-88,
24,
-46,
11,
250,
214,
299,
199,
10,
-5,
-21,
-126,
-105,
-6,
-9,
86,
136,
338,
260,
226,
117,
62,
-93,
-82,
-81,
-36,
80,
80,
236,
205,
198,
253,
247,
76,
88,
-38,
-52,
-12,
15,
35,
35,
5,
-38,
-37,
-79,
-58,
-75,
-42,
-22,
30,
7,
19,
71,
78,
64,
64,
144,
29,
34,
6,
-17,
80,
-38,
-132,
-141,
-91,
28,
-136,
181,
115,
14,
18,
21,
45,
-47,
-104,
-29,
-109,
-86,
-48,
54,
40,
66,
73,
18,
31,
-20,
-156,
122,
-140,
-265,
-77,
68,
65,
43,
-2,
49,
10,
-36,
-54,
132,
-23,
-296,
-227,
75,
203,
76,
68,
-46,
6,
63,
135,
343,
-11,
-296,
-266,
10,
13,
-70,
-92,
-33,
-49,
2,
111,
237,
18,
-114,
-60,
35,
68,
55,
26,
-4,
-49,
-2,
-11,
9,
47,
-6,
-116,
-22,
55,
47,
28,
-45,
32,
35,
-2,
86,
-78,
-111,
-30,
-76,
-72,
-87,
-8,
-30,
36,
52,
155,
-72,
-140,
-182,
-233,
-313,
-103,
-106,
-18,
0,
-9,
-62,
19,
135,
-10,
144,
142,
-48,
19,
25,
-6,
-15,
-3,
11,
26,
36,
19,
-9,
13,
37,
44,
12,
-10,
10,
0,
-16,
-28,
-79,
-11,
26,
14,
19,
-34,
-50,
-25,
0,
18,
-31,
29,
-10,
36,
-40,
27,
2,
87,
-55,
-100,
-48,
-6,
30,
262,
312,
298,
147,
205,
200,
74,
35,
-6,
-31,
13,
0,
-12,
309,
343,
429,
265,
-77,
72,
156,
38,
53,
69,
3,
324,
393,
195,
-108,
-30,
84,
75,
39,
-2,
36,
59,
59,
102,
235,
105,
-73,
-29,
-53,
49,
0,
-46,
-20,
24,
78,
101,
156,
37,
-86,
-44,
73,
68,
181,
61,
-19,
12,
-55,
-6,
-6,
-87,
-9,
-70,
86,
221,
182,
87,
-9,
-66,
-7,
-9,
-210,
-265,
-270,
-152,
-183,
-124,
-123,
-53,
-35,
-29,
-155,
-88,
-382,
-263,
-320,
-79,
-186,
-200,
-153,
-104,
-60,
22,
81,
-38,
-116,
-116,
-151,
28,
-96,
-108,
-139,
-74,
-56,
5,
-21,
-2,
-16,
10,
-32,
-31,
8,
-28,
-7,
8,
13,
20,
38,
-14,
-3,
49,
-57,
-27,
-36,
-29,
23,
30,
-2,
5,
0,
-29,
115,
-6,
10,
-40,
-107,
-86,
60,
18,
78,
16,
-100,
36,
104,
215,
23,
-117,
-106,
-146,
-61,
-67,
75,
-52,
-65,
-74,
-51,
15,
54,
44,
-42,
-202,
-169,
-100,
-77,
-19,
-86,
-112,
-28,
14,
6,
-85,
-166,
-204,
-67,
-66,
-76,
-11,
-48,
-92,
106,
137,
-52,
23,
-11,
-135,
34,
-9,
15,
16,
-2,
-10,
60,
116,
58,
142,
168,
50,
61,
33,
-16,
-13,
54,
40,
146,
108,
50,
56,
91,
17,
85,
21,
-67,
-11,
-2,
-11,
101,
51,
38,
126,
-5,
98,
15,
-10,
-3,
21,
13,
-7,
70,
16,
109,
75,
29,
2,
15,
-25,
-13,
-7,
-24,
-7,
-71,
83,
66,
48,
84,
21,
-12,
59,
21,
-4,
8,
-13,
29,
57,
9,
-14,
61,
50,
38,
-16,
23,
29,
117,
280,
149,
68,
198,
172,
-17,
-106,
-160,
18,
41,
36,
108,
352,
471,
355,
408,
225,
87,
15,
-213,
-124,
-90,
155,
145,
148,
373,
54,
252,
-69,
199,
-75,
-397,
-158,
-13,
51,
95,
224,
260,
23,
3,
7,
-2,
0,
-198,
18,
-36,
100,
-51,
-156,
86,
-92,
-324,
-194,
143,
-35,
64,
-73,
-45,
21,
-92,
-233,
-141,
-132,
-406,
-247,
106,
288,
260,
-132,
-118,
16,
-288,
-211,
-67,
-68,
-110,
29,
117,
43,
-3,
-96,
-32,
-78,
-126,
-128,
-94,
-223,
-153,
18,
77,
137,
104,
34,
115,
-37,
-75,
-169,
-323,
-236,
-213,
-8,
-154,
26,
58,
-53,
-29,
16,
-10,
-208,
-345,
-328,
-178,
-44,
-30,
86,
-35,
-91,
-34,
24,
13,
15,
-147,
-204,
57,
16,
-57,
-73,
-63,
-119,
-28,
-2,
0,
15,
-16,
-33,
-54,
-67,
-81,
-59,
-9,
-25,
-6,
11,
69,
11,
64,
-53,
76,
-107,
-69,
-64,
8,
-28,
-5,
38,
-7,
57,
41,
4,
-104,
-27,
-13,
-69,
-23,
4,
-25,
18,
-72,
1,
53,
-31,
-149,
-57,
-86,
-96,
-50,
-3,
-94,
-21,
-122,
-5,
-86,
53,
8,
86,
86,
42,
-47,
-72,
-49,
3,
36,
-51,
-72,
37,
53,
389,
96,
-57,
30,
-59,
-42,
58,
60,
11,
-3,
-33,
-232,
122,
-83,
-52,
102,
-28,
-81,
-21,
18,
-72,
65,
-44,
-253,
-19,
-207,
-139,
-8,
42,
-74,
-61,
24,
-45,
21,
-144,
-135,
82,
-193,
-183,
-91,
-137,
-10,
-54,
-32,
-125,
-122,
-172,
-46,
152,
-10,
-85,
-84,
-172,
-1,
-37,
-24,
-83,
-139,
23,
201,
168,
257,
74,
-35,
-48,
8,
-28,
-67,
82,
89,
111,
291,
199,
181,
129,
-9,
-68,
13,
13,
7,
44,
63,
0,
-19,
13,
0,
-53,
-77,
-47,
-32,
6,
36,
60,
75,
127,
150,
110,
80,
65,
23,
11,
-36,
70,
20,
-19,
52,
122,
115,
42,
5,
120,
50,
47,
41,
53,
44,
127,
160,
77,
90,
-15,
99,
10,
19,
-14,
39,
1,
11,
132,
168,
56,
-50,
-127,
-31,
-87,
-12,
26,
-43,
-19,
8,
-31,
9,
14,
-168,
-201,
-69,
-22,
50,
0,
-22,
-11,
-39,
-27,
64,
-39,
-118,
-92,
-7,
60,
58,
-26,
-12,
-31,
-73,
-119,
-20,
-16,
-40,
-19,
30,
-16,
39,
-35,
5,
-7,
-45,
-16,
11,
-48,
-57,
-46,
-59,
81,
86,
7,
-67,
24,
-7,
-14,
-83,
-138,
-143,
0,
-37,
-33,
-38,
-59,
9,
1,
17,
-23,
-98,
-107,
-109,
-96,
-158,
-59,
-50,
-52,
-26,
-4,
-92,
-124,
-77,
-12,
5,
35,
-35,
-25,
-16,
36,
13,
0,
-11,
-29,
-37,
-61,
-123,
-143,
-146,
-60,
-43,
-36,
-12,
-7,
53,
-28,
41,
48,
-299,
-244,
-143,
-166,
-12,
-40,
-15,
40,
-124,
-70,
-52,
-185,
-197,
-80,
64,
2,
64,
-3,
15,
-35,
-106,
-342,
-196,
-274,
-88,
175,
114,
150,
135,
49,
44,
-23,
-183,
3,
-75,
-69,
41,
145,
376,
36,
43,
12,
41,
69,
-65,
-167,
23,
34,
266,
48,
217,
122,
-25,
105,
-7,
32,
136,
184,
437,
197,
-116,
-56,
42,
160,
32,
-59,
11,
-28,
16,
226,
451,
367,
-97,
62,
15,
160,
105,
128,
37,
-27,
-30,
73,
166,
289,
258,
112,
7,
70,
-35,
138,
6,
29,
43,
77,
100,
222,
218,
85,
-277,
-80,
-3,
10,
-60,
0,
21,
139,
211,
133,
112,
57,
59,
-22,
-1,
0,
-28,
-79,
-75,
183,
174,
155,
200,
203,
116,
34,
-9,
-8,
-30,
-17,
-12,
13,
-26,
-11,
-57,
-73,
-45,
-4,
-17,
-16,
0,
0,
35,
-38,
-64,
-2,
-106,
-61,
-125,
-2,
-74,
-40,
-26,
-42,
-41,
-231,
-17,
-9,
-183,
-32,
-46,
2,
35,
101,
-4,
29,
-154,
-73,
-120,
-121,
-214,
-236,
-198,
12,
-32,
85,
60,
-33,
-205,
-209,
-274,
-322,
-236,
-87,
186,
105,
130,
135,
31,
-49,
-27,
-73,
-52,
-198,
-255,
-127,
148,
157,
48,
-22,
-19,
77,
40,
-92,
113,
164,
-54,
-368,
-150,
134,
186,
133,
77,
60,
53,
213,
293,
320,
-165,
-288,
-8,
162,
23,
174,
-89,
11,
78,
19,
249,
259,
-12,
-2,
2,
75,
162,
45,
0,
5,
-46,
78,
317,
130,
279,
58,
-151,
-123,
-12,
-61,
-20,
-13,
15,
31,
271,
264,
179,
-108,
-109,
-102,
-166,
-71,
-63,
-54,
5,
167,
168,
70,
146,
6,
31,
-139,
7,
-31,
-24,
12,
10,
-12,
-45,
-44,
-30,
-79,
-68,
-55,
-19,
-20,
0,
2,
42,
26,
31,
60,
-10,
-29,
-49,
-77,
-46,
-43,
-4,
37,
0,
56,
166,
75,
3,
-30,
-7,
-7,
-5,
8,
-2,
87,
22,
239,
223,
88,
221,
-129,
27,
140,
-47,
33,
13,
-2,
-7,
-6,
24,
-104,
-106,
-116,
116,
-1,
0,
29,
0,
3,
2,
-47,
-111,
-229,
-215,
59,
89,
-6,
24,
41,
-56,
-47,
-122,
-40,
-178,
-95,
-250,
-139,
-1,
183,
37,
35,
-38,
-26,
-157,
-67,
-134,
-107,
-137,
-20,
-27,
176,
43,
39,
-23,
-44,
-76,
-49,
-22,
-40,
-79,
-14,
-37,
-47,
-47,
-16,
-41,
-17,
-24,
-9,
-59,
-43,
-51,
21,
-87,
-29,
-92,
-97,
-38,
2,
48,
-46,
-50,
-70,
37,
74,
9,
3,
-55,
-57,
-22,
-32,
-36,
66,
34,
104,
161,
73,
95,
109,
66,
-37,
-2,
11,
-10,
-23,
-6,
15,
-30,
-43,
-9,
-7,
8,
-9,
-11,
23,
41,
-16,
86,
45,
-66,
-27,
-44,
-30,
4,
5,
-8,
12,
5,
15,
98,
-33,
-29,
-92,
9,
-47,
25,
-10,
39,
23,
-80,
-50,
-11,
-122,
-37,
20,
-75,
-11,
49,
43,
2,
-45,
-71,
-112,
-170,
-176,
-262,
-79,
4,
-167,
-53,
-10,
-2,
-40,
-72,
-130,
-83,
-141,
-189,
-54,
10,
-123,
-25,
-38,
18,
43,
-64,
22,
181,
0,
-103,
96,
35,
8,
25,
-54,
19,
31,
-36,
76,
107,
115,
-47,
31,
-6,
17,
-46,
4,
-53,
-32,
41,
33,
131,
1,
-48,
17,
101,
0,
36,
15,
-14,
-11,
21,
57,
66,
-50,
-68,
71,
-2,
21,
51,
-46,
-3,
1,
44,
56,
14,
0,
69,
0,
-18,
61,
-27,
-10,
-20,
-6,
-44,
62,
-16,
-75,
-60,
13,
-23,
15,
-25,
-1,
1,
2,
31,
6,
36,
-17,
-28,
4,
-4,
-32,
-22,
-16,
13,
10,
29,
63,
-39,
14,
-10,
-52,
-3,
-19,
8,
0,
-11,
30,
88,
22,
18,
27,
-34,
-93,
-71,
-33,
-14,
-31,
-4,
38,
-26,
118,
147,
-27,
-92,
-77,
46,
-52,
-75,
-40,
-1,
57,
-26,
-84,
52,
-105,
-167,
-152,
139,
103,
-131,
34,
18,
-12,
-21,
-103,
-110,
-160,
-238,
-89,
94,
147,
77,
-3,
-40,
-1,
-12,
-83,
-30,
-84,
-235,
-141,
36,
107,
40,
-44,
29,
-7,
-45,
-47,
-66,
-21,
-107,
-157,
-37,
66,
5,
-29,
-42,
-4,
-92,
-66,
15,
20,
-133,
-71,
-45,
-38,
-58,
-23,
-60,
-30,
-30,
10,
-14,
-79,
-48,
26,
-76,
-51,
-126,
-54,
-30,
-11,
10,
-41,
-106,
-88,
-77,
-50,
-95,
-26,
-104,
-63,
-17,
-13,
-11,
-7,
22,
40,
-71,
9,
-13,
4,
-36,
-48,
-7,
5,
31,
42,
21,
-4,
-11,
-4,
-26,
-21,
-40,
-12,
-10,
10,
18,
-6,
53,
72,
-26,
5,
31,
61,
54,
13,
2,
10,
-11,
28,
-1,
8,
129,
74,
99,
138,
-68,
3,
33,
6,
-76,
-71,
-68,
-114,
128,
193,
175,
144,
185,
0,
-22,
-1,
-77,
-5,
273,
-85,
19,
28,
235,
-53,
-118,
-35,
16,
-54,
1,
-83,
11,
85,
135,
-182,
-185,
-136,
-52,
-69,
-96,
72,
46,
122,
523,
525,
-8,
-70,
93,
-69,
-33,
-26,
27,
36,
55,
248,
442,
251,
56,
-87,
114,
112,
145,
-2,
-17,
0,
77,
136,
183,
-44,
-102,
20,
0,
11,
103,
20,
-7,
54,
32,
-33,
56,
38,
-53,
22,
-62,
99,
59,
35,
34,
-44,
26,
-17,
-110,
-129,
-200,
-191,
-167,
-112,
13,
22,
-18,
-49,
-139,
-42,
-38,
49,
-135,
-95,
-61,
-6,
-49,
-39,
-2,
0,
7,
21,
22,
13,
9,
15,
-11,
-5,
-14,
16,
14,
1,
42,
101,
123,
75,
138,
123,
77,
-24,
-62,
-68,
0,
30,
18,
-26,
-10,
-71,
-44,
-113,
-18,
60,
20,
-66,
-19,
54,
15,
113,
100,
116,
34,
-107,
-55,
-14,
-49,
14,
108,
-26,
-26,
174,
195,
-111,
-132,
-172,
-115,
-13,
-57,
-57,
38,
33,
49,
106,
21,
-84,
-110,
-142,
6,
106,
11,
41,
25,
-16,
25,
-69,
2,
-18,
-80,
-163,
-32,
210,
184,
61,
-58,
12,
-36,
-81,
-113,
36,
-61,
-71,
-122,
88,
62,
26,
-24,
2,
-62,
0,
37,
18,
-85,
-44,
-90,
-46,
-1,
-49,
-64,
17,
-10,
-67,
-31,
-43,
-19,
27,
-50,
-84,
-65,
-23,
-23,
-3,
-27,
-28,
-131,
-167,
-120,
-66,
-89,
-170,
-118,
-14,
-25,
13,
36,
-30,
-113,
-10,
-91,
-129,
-104,
-58,
-51,
8,
-25,
20,
5,
16,
-59,
-52,
-18,
-21,
-54,
-77,
-26,
10,
-15,
26,
43,
80,
93,
122,
130,
56,
5,
22,
42,
-73,
-46,
51,
-10,
111,
268,
254,
121,
-85,
-27,
-28,
63,
21,
-2,
45,
104,
361,
400,
361,
211,
22,
-85,
102,
-46,
29,
122,
2,
51,
313,
241,
222,
81,
-101,
-137,
-44,
-90,
3,
-35,
-15,
36,
66,
10,
-25,
-202,
-204,
-77,
15,
-9,
1,
-44,
-65,
-158,
-204,
-79,
-77,
-55,
-143,
-105,
79,
194,
-28,
-76,
-35,
-113,
-222,
-164,
-42,
-146,
-148,
-50,
237,
96,
48,
-2,
-12,
-77,
-19,
25,
38,
-45,
-188,
-48,
61,
11,
-148,
-90,
33,
-14,
-42,
-40,
-94,
-49,
-9,
-151,
-114,
-157,
-53,
-44,
20,
-22,
33,
-97,
-105,
-94,
-89,
-179,
-182,
-99,
-48,
-36,
-47,
-91,
-66,
-96,
10,
52,
45,
-119,
-72,
-3,
17,
-5,
-10,
-1,
-38,
-51,
-23,
-50,
-62,
-44,
5,
7,
-11,
1,
38,
25,
13,
-17,
-57,
-107,
-243,
-144,
-135,
20,
-10,
0,
35,
27,
50,
147,
105,
-78,
-251,
-108,
-153,
-77,
-115,
-1,
29,
-39,
-74,
-30,
-63,
-90,
97,
-142,
-96,
-50,
-12,
-30,
47,
-16,
-143,
-26,
-250,
-13,
257,
121,
98,
-88,
-57,
-14,
48,
-153,
-174,
-170,
-122,
96,
122,
282,
-96,
-35,
-41,
-49,
47,
-76,
-39,
-51,
-263,
107,
-6,
130,
-121,
2,
-79,
-16,
-22,
-27,
70,
107,
-17,
126,
20,
-28,
-121,
31,
-24,
-33,
-15,
-25,
3,
-16,
181,
11,
191,
142,
28,
-91,
-49,
0,
-8,
-86,
-58,
-18,
158,
152,
183,
42,
60,
-127,
-32,
-5,
32,
0,
-6,
37,
239,
150,
225,
83,
103,
-133,
-23,
-3,
-13,
12,
115,
76,
145,
189,
252,
143,
70,
-21,
-36,
-5,
-22,
-9,
-14,
-33,
-71,
-46,
-78,
-62,
-43,
1,
-10,
-20,
16,
52,
61,
79,
-23,
26,
-47,
-84,
-132,
-74,
-6,
-28,
49,
101,
180,
247,
80,
-1,
-28,
-135,
-39,
59,
41,
-126,
49,
88,
164,
167,
-59,
-76,
-147,
-35,
-109,
2,
15,
-62,
-101,
126,
-10,
-45,
-94,
-165,
22,
-41,
-9,
44,
-80,
-70,
-15,
-36,
-97,
-209,
139,
14,
8,
-88,
14,
-58,
33,
-89,
-49,
-104,
-119,
-125,
56,
-226,
-115,
-86,
15,
-11,
49,
-86,
-38,
-122,
-123,
21,
-232,
-215,
-219,
-185,
-148,
8,
-15,
-13,
-30,
-25,
-91,
24,
-52,
-173,
-129,
-13,
-119,
-79,
-105,
-32,
20,
-84,
-172,
-80,
-124,
-126,
95,
-72,
-1,
50,
-140,
-47,
-24,
-43,
-77,
-153,
-43,
195,
112,
147,
176,
69,
-69,
-45,
-15,
-57,
81,
112,
152,
171,
295,
166,
108,
80,
-51,
-35,
0,
24,
26,
25,
-25,
-2,
-19,
-31,
-11,
19,
15,
11,
31,
18,
13,
-85,
-78,
-92,
-35,
-97,
-105,
30,
19,
27,
-16,
2,
-1,
-171,
-36,
29,
4,
-98,
-69,
-27,
-4,
-6,
81,
-56,
-78,
-18,
-72,
19,
95,
10,
-99,
-134,
-75,
10,
69,
-54,
39,
-63,
-76,
-204,
-144,
0,
-184,
-87,
31,
67,
44,
32,
-47,
213,
-113,
-74,
-99,
7,
110,
117,
35,
-26,
58,
113,
2,
28,
152,
-51,
-354,
-44,
38,
74,
-14,
-4,
28,
0,
93,
220,
238,
-233,
-261,
-160,
228,
34,
71,
-99,
-14,
6,
62,
207,
62,
-236,
-182,
-192,
15,
161,
111,
38,
0,
-25,
59,
59,
-202,
-135,
-69,
-320,
-229,
-154,
-114,
-45,
10,
23,
-104,
-10,
-157,
-89,
-256,
-125,
-232,
-216,
-62,
-11,
-22,
52,
158,
-53,
-130,
-69,
-122,
-31,
-198,
-169,
-105,
-39,
-14,
1,
29,
35,
43,
-9,
-19,
32,
21,
37,
-13,
12,
14,
47,
18,
105,
83,
67,
38,
-2,
12,
47,
10,
76,
12,
14,
95,
30,
-7,
-18,
-120,
-90,
-61,
4,
19,
-34,
1,
-8,
38,
41,
28,
-120,
63,
92,
-7,
-104,
-61,
-11,
21,
-15,
-54,
-23,
-186,
-209,
-175,
50,
162,
26,
88,
-13,
26,
-13,
-110,
-213,
-176,
-278,
-87,
179,
193,
34,
139,
-45,
10,
-68,
-61,
-117,
-141,
-47,
-9,
-6,
-2,
-105,
-151,
-39,
-14,
44,
81,
156,
-25,
242,
156,
-6,
-195,
-189,
-54,
31,
-51,
-15,
187,
171,
80,
153,
44,
-92,
2,
-90,
115,
-32,
-47,
11,
-34,
11,
-18,
139,
77,
39,
53,
105,
26,
-27,
8,
22,
-108,
-114,
-225,
-45,
-35,
106,
-67,
79,
127,
4,
11,
-12,
-18,
-63,
-81,
-48,
22,
7,
84,
-52,
-28,
27,
0,
-11,
-7,
18,
37,
7,
48,
-4,
-10,
26,
-15,
8,
1,
0,
47,
-66,
85,
-35,
83,
187,
70,
28,
-10,
40,
-4,
0,
-6,
4,
-5,
39,
160,
-1,
171,
109,
62,
-25,
-10,
84,
67,
108,
213,
237,
179,
263,
68,
199,
44,
45,
37,
77,
36,
84,
212,
272,
228,
-6,
69,
157,
27,
32,
-8,
57,
49,
197,
158,
140,
57,
85,
92,
31,
-32,
52,
33,
124,
84,
183,
180,
343,
200,
181,
202,
100,
104,
23,
11,
8,
15,
141,
195,
-20,
260,
93,
144,
91,
85,
-21,
-30,
-20,
1,
-5,
-109,
96,
157,
276,
122,
-10,
-7,
-9,
-22,
40,
33,
-32,
60,
90,
42,
47,
191,
-94,
-43,
9,
-5,
-34,
114,
4,
116,
95,
189,
0,
-72,
-10,
-44,
-68,
-19,
13,
14,
63,
-29,
91,
-30,
-13,
-135,
-31,
0,
7,
10,
23,
39,
55,
47,
35,
74,
75,
31,
-9,
5,
-4,
8,
46,
4,
73,
152,
7,
6,
67,
75,
149,
45,
35,
23,
32,
29,
-41,
105,
34,
-83,
-52,
-48,
99,
15,
62,
16,
67,
-6,
-174,
-221,
-92,
45,
92,
-11,
20,
145,
83,
36,
53,
-55,
-65,
-160,
-94,
8,
93,
154,
9,
32,
-53,
35,
-127,
-168,
-283,
-168,
-52,
104,
149,
28,
26,
28,
-74,
10,
74,
-45,
-80,
-106,
184,
-108,
46,
196,
122,
-53,
-6,
22,
7,
-17,
-34,
-20,
77,
174,
121,
0,
-27,
-29,
71,
1,
26,
-29,
-158,
-234,
-145,
-60,
1,
42,
12,
53,
-116,
-14,
4,
-126,
-160,
-231,
-149,
-20,
-45,
-159,
55,
-73,
-29,
20,
-54,
-161,
-337,
-161,
-90,
57,
87,
147,
75,
28,
47,
-3,
-11,
28,
3,
-22,
-40,
37,
27,
25,
-79,
2,
11,
26,
31,
51,
51,
16,
64,
16,
2,
11,
17,
20,
-9,
-12,
14,
-14,
0,
52,
54,
-1,
54,
-3,
-24,
32,
16,
-8,
-3,
76,
-6,
70,
173,
110,
154,
69,
-49,
30,
56,
8,
-16,
32,
61,
29,
39,
153,
43,
79,
-7,
30,
-10,
27,
-28,
25,
-62,
-79,
102,
-11,
53,
91,
199,
78,
-10,
9,
-19,
2,
0,
40,
20,
-52,
90,
30,
143,
69,
-60,
11,
-19,
13,
-50,
66,
34,
52,
124,
87,
59,
-10,
29,
18,
1,
19,
8,
-62,
-20,
15,
77,
0,
-62,
-43,
-61,
-11,
-8,
27,
-45,
-16,
60,
223,
142,
-84,
-75,
-55,
-87,
25,
-11,
-24,
21,
40,
87,
94,
71,
-64,
29,
0,
33,
-7,
-44,
42,
88,
24,
84,
4,
144,
-9,
-12,
-27,
-31,
-14,
10,
-46,
-28,
-10,
3,
-15,
51,
71,
-8,
33,
55,
20,
12,
-18,
61,
-7,
76,
3,
134,
94,
-50,
53,
-2,
15,
2,
44,
92,
121,
-50,
-20,
78,
-18,
37,
22,
36,
-7,
92,
17,
87,
-26,
-166,
-168,
-157,
-81,
-24,
-5,
69,
18,
98,
211,
42,
-74,
-121,
-16,
104,
16,
52,
97,
14,
-41,
137,
22,
27,
-22,
-162,
10,
36,
184,
263,
70,
97,
-17,
105,
-33,
-220,
-70,
42,
28,
-49,
-23,
80,
68,
32,
3,
-43,
-33,
163,
286,
75,
-120,
-264,
-172,
-217,
-99,
-46,
7,
-74,
178,
98,
296,
107,
-84,
-243,
-238,
-120,
-161,
-41,
29,
-26,
13,
250,
385,
181,
-59,
22,
49,
159,
60,
101,
9,
-59,
52,
77,
170,
168,
236,
235,
55,
132,
163,
49,
-6,
-3,
-7,
-74,
-50,
28,
-81,
41,
39,
-2,
65,
8,
22,
-42,
-38,
-121,
-114,
-51,
-75,
-16,
-14,
16,
0,
11,
0,
36,
64,
74,
99,
70,
56,
11,
42,
25,
25,
-34,
18,
-9,
46,
-23,
127,
132,
167,
145,
33,
31,
64,
42,
-9,
24,
109,
88,
120,
115,
117,
-62,
-61,
-62,
13,
43,
24,
66,
18,
57,
-31,
46,
104,
128,
92,
57,
109,
15,
21,
5,
-51,
-142,
-189,
-115,
-42,
115,
198,
317,
47,
-6,
-55,
-26,
-88,
-12,
-84,
-150,
51,
195,
34,
214,
-4,
-37,
27,
85,
88,
119,
114,
15,
86,
177,
42,
-146,
-19,
19,
12,
56,
101,
96,
135,
-59,
77,
-84,
-35,
-153,
-15,
-89,
23,
69,
26,
24,
-67,
-211,
42,
23,
-92,
57,
-81,
-33,
26,
-26,
-31,
-87,
-152,
-34,
21,
100,
40,
46,
14,
18,
21,
-98,
-115,
-156,
7,
-8,
72,
-114,
92,
1,
-14,
11,
-7,
-16,
-70,
-133,
-91,
3,
-44,
36,
-22,
-24,
34,
17,
23,
23,
10,
5,
91,
49,
44,
23,
70,
67,
32,
29,
33,
0,
18,
-39,
-23,
135,
97,
16,
-28,
15,
42,
40,
-9,
24,
-6,
-22,
36,
-5,
67,
42,
-159,
-19,
89,
17,
22,
34,
-20,
-79,
-159,
-126,
-8,
82,
204,
7,
-18,
26,
-24,
-65,
-44,
59,
-53,
-134,
-190,
-33,
97,
138,
-10,
-44,
78,
25,
-48,
-172,
-160,
-90,
-217,
123,
10,
87,
87,
72,
61,
67,
83,
-97,
62,
-120,
-58,
113,
208,
93,
77,
14,
60,
45,
36,
56,
-66,
-84,
93,
-85,
-67,
-170,
-152,
-17,
2,
-8,
-108,
-78,
-24,
-153,
-2,
-107,
-39,
-143,
-27,
-20,
-10,
-59,
-228,
-263,
-95,
-11,
-7,
-45,
-167,
-92,
-145,
-31,
48,
43,
-73,
-126,
-96,
25,
-97,
-143,
-56,
48,
2,
16,
9,
10,
41,
44,
70,
52,
39,
28,
42,
26,
13,
34,
-3,
-28,
-2,
-24,
-31,
1,
29,
-13,
29,
-24,
-37,
-31,
-31,
-13,
-41,
-2,
-31,
-107,
49,
-24,
32,
79,
-24,
-1,
-6,
-48,
-53,
-30,
-104,
-84,
79,
9,
89,
144,
1,
18,
-25,
4,
0,
40,
-69,
22,
-56,
-57,
93,
190,
55,
23,
4,
-30,
61,
3,
-17,
169,
205,
139,
-119,
36,
87,
20,
-27,
-14,
-79,
-96,
168,
150,
252,
42,
14,
-107,
-157,
-84,
-29,
-17,
-16,
29,
81,
186,
1,
-32,
159,
-56,
63,
-25,
-19,
36,
-18,
-131,
-176,
-38,
-85,
28,
236,
120,
177,
52,
-11,
-31,
-76,
-146,
-130,
-93,
-15,
173,
152,
90,
-28,
-20,
-30,
-20,
-94,
-65,
0,
51,
132,
130,
27,
-75,
-19,
-12,
-30,
-78,
-11,
-41,
100,
102,
109,
121,
-81,
-63,
-30,
33,
-30,
0,
-81,
5,
-14,
-13,
-84,
-49,
38,
-50,
-26,
-53,
-10,
21,
-21,
-6,
61,
183,
-13,
38,
4,
59,
54,
8,
-17,
-5,
-26,
-197,
-21,
54,
-106,
-1,
-67,
208,
27,
26,
5,
-117,
-181,
-118,
10,
-160,
72,
121,
174,
182,
106,
10,
-50,
-21,
43,
-47,
62,
173,
272,
187,
87,
106,
147,
49,
32,
15,
71,
184,
434,
291,
323,
6,
-129,
45,
50,
61,
25,
62,
120,
375,
261,
353,
20,
97,
129,
-63,
54,
32,
24,
163,
96,
240,
34,
291,
-78,
1,
314,
176,
213,
-13,
-11,
-64,
-119,
-180,
-226,
93,
47,
223,
237,
173,
1,
87,
-22,
-88,
-88,
-168,
-268,
70,
-183,
42,
43,
-112,
-64,
-11,
-41,
-32,
-14,
56,
50,
100,
214,
105,
-182,
-163,
-207,
-122,
-16,
-80,
256,
97,
323,
23,
33,
-180,
-61,
-69,
-61,
-52,
-40,
41,
-9,
131,
-18,
143,
-137,
-132,
-76,
-70,
23,
39,
0,
-8,
12,
-21,
15,
-28,
-42,
63,
41,
59,
-47,
1,
4,
-34,
5,
-43,
-50,
-143,
35,
60,
-19,
30,
-49,
54,
-2,
-40,
-22,
12,
-126,
-53,
48,
27,
-57,
-25,
37,
-8,
-4,
-78,
-46,
-68,
70,
270,
396,
140,
87,
22,
35,
-11,
20,
1,
19,
40,
173,
276,
335,
95,
59,
-47,
-117,
-21,
-3,
22,
-60,
45,
146,
130,
100,
65,
-153,
-170,
-35,
-1,
30,
-34,
-115,
2,
167,
123,
-27,
-47,
-89,
-64,
-40,
-24,
-5,
28,
-20,
-6,
40,
183,
-34,
128,
2,
-56,
13,
19,
-80,
50,
132,
18,
41,
231,
15,
144,
156,
18,
159,
0,
-93,
83,
134,
51,
206,
391,
152,
104,
14,
96,
100,
-15,
-55,
46,
110,
239,
243,
199,
135,
-23,
36,
10,
108,
-24,
-28,
40,
-31,
71,
19,
-47,
-18,
-53,
38,
-45,
31,
-14,
5,
14,
17,
30,
27,
47,
15,
7,
21,
23,
15,
-16,
-1,
-29,
-70,
-18,
5,
-45,
0,
48,
-38,
3,
7,
8,
7,
-16,
-8,
-39,
-12,
67,
-12,
47,
40,
40,
2,
35,
-10,
-20,
-16,
-66,
5,
28,
53,
5,
37,
51,
149,
68,
11,
-6,
-8,
62,
141,
127,
29,
37,
62,
55,
43,
-1,
-20,
7,
102,
189,
64,
158,
-17,
-4,
31,
-84,
-12,
-44,
7,
40,
165,
138,
99,
32,
9,
108,
29,
-43,
12,
32,
34,
-26,
-13,
-106,
-88,
30,
21,
-9,
33,
44,
-17,
17,
4,
-28,
-106,
-129,
-77,
-98,
24,
26,
81,
59,
-50,
-53,
-21,
-54,
-65,
-51,
91,
65,
-82,
24,
-29,
-40,
-49,
4,
-22,
-27,
-29,
32,
70,
-24,
19,
-134,
-31,
-44,
-36,
6,
17,
6,
-40,
42,
-63,
39,
-84,
2,
17,
18,
5,
-15,
14,
36,
55,
32,
102,
-23,
69,
34,
28,
66,
4,
37,
1,
-24,
130,
-29,
34,
193,
25,
19,
58,
0,
129,
78,
-8,
35,
167,
13,
-60,
-245,
-97,
-171,
-218,
107,
20,
-8,
-30,
9,
19,
80,
-13,
-203,
-298,
201,
-146,
-83,
62,
-51,
-30,
-80,
-18,
-384,
-232,
-312,
-93,
79,
102,
79,
217,
-51,
-25,
-104,
-241,
-108,
-90,
-178,
-86,
71,
18,
52,
-95,
64,
-8,
61,
49,
27,
86,
86,
-104,
-52,
-234,
-250,
-26,
-59,
16,
175,
135,
274,
274,
252,
-111,
-254,
-77,
37,
-65,
-38,
-11,
106,
204,
69,
69,
-230,
-247,
-138,
60,
-27,
-24,
49,
-7,
10,
-31,
49,
-24,
-70,
34,
42,
55,
98,
-32,
21,
31,
-124,
-99,
-219,
-108,
-153,
116,
45,
58,
82,
25,
32,
-1,
-16,
-127,
-179,
-147,
-101,
-58,
37,
0,
-5,
9,
6,
-6,
29,
16,
-30,
-18,
-17,
43,
-16,
56,
-8,
7,
14,
-3,
-20,
-36,
107,
102,
-182,
111,
10,
-61,
75,
66,
-14,
8,
4,
46,
150,
30,
-10,
156,
110,
-121,
6,
27,
113,
-16,
27,
129,
129,
154,
243,
179,
78,
53,
9,
-150,
-59,
4,
69,
31,
115,
169,
-5,
68,
263,
206,
151,
41,
80,
-51,
36,
-148,
-271,
-32,
-217,
84,
291,
343,
346,
269,
39,
15,
-40,
-16,
30,
84,
55,
279,
105,
142,
-5,
32,
-71,
6,
44,
169,
365,
198,
287,
334,
-3,
-128,
-199,
-225,
-42,
32,
-7,
188,
367,
302,
156,
-92,
46,
-108,
-36,
-78,
46,
-17,
-11,
104,
54,
37,
43,
20,
164,
64,
83,
180,
-9,
-40,
-101,
-48,
-30,
-119,
-33,
147,
344,
35,
130,
20,
-27,
0,
-16,
-84,
-164,
-139,
8,
138,
205,
-10,
15,
44,
-24,
-5,
16,
34,
2,
22,
39,
40,
38,
-2,
-25,
31,
-4,
14,
-13,
61,
-40,
24,
91,
49,
95,
0,
34,
8,
19,
8,
2,
62,
32,
-30,
-80,
-74,
42,
147,
65,
55,
-21,
-9,
62,
56,
76,
-23,
241,
204,
55,
175,
146,
106,
0,
15,
53,
101,
131,
245,
128,
64,
91,
70,
6,
72,
93,
-24,
103,
125,
100,
64,
82,
-1,
58,
9,
-30,
28,
67,
12,
118,
149,
284,
59,
90,
93,
-84,
-1,
-79,
-12,
-39,
6,
25,
48,
167,
38,
146,
-24,
21,
-34,
-50,
-64,
-22,
-18,
4,
-92,
-165,
-60,
112,
-42,
58,
19,
43,
-38,
49,
-32,
-42,
-79,
-18,
31,
95,
143,
94,
82,
-24,
-7,
-21,
-40,
-22,
96,
107,
125,
100,
114,
59,
0,
9,
19,
-19,
2,
43,
13,
86,
-21,
156,
-12,
13,
-40,
-27,
-7,
2,
6,
19,
-9,
-23,
14,
-34,
-9,
-20,
-6,
-25,
-23,
7,
6,
0,
4,
-27,
0,
2,
25,
6,
21,
-25,
35,
1,
-32,
-2,
67,
51,
17,
29,
102,
13,
57,
67,
-11,
21,
0,
45,
93,
65,
65,
158,
55,
75,
88,
20,
62,
-35,
-1,
11,
10,
-5,
80,
106,
140,
153,
102,
102,
30,
-59,
-26,
-10,
-145,
36,
-5,
-18,
242,
175,
22,
69,
-33,
-53,
20,
17,
-31,
34,
-8,
127,
120,
155,
90,
51,
9,
-16,
12,
69,
-2,
-10,
-22,
-25,
0,
53,
58,
48,
64,
0,
-35,
17,
24,
-108,
59,
-37,
82,
194,
71,
-62,
-11,
-37,
-38,
26,
27,
-44,
9,
134,
228,
100,
16,
-48,
-24,
-12,
-9,
-86,
21,
-6,
66,
217,
125,
134,
-11,
36,
-13,
-22,
-37,
13,
-30,
35,
-35,
98,
101,
-37,
1,
4,
-20,
-24,
13,
2,
24,
31,
36,
34,
41,
-6,
1,
25,
14,
-10,
10,
-11,
13,
-19,
3,
55,
-18,
58,
11,
-1,
40,
8,
-25,
-19,
30,
-33,
117,
89,
114,
136,
0,
31,
-18,
26,
23,
34,
67,
125,
130,
62,
292,
103,
117,
35,
127,
-29,
14,
-2,
83,
65,
194,
376,
54,
83,
57,
197,
62,
-30,
10,
45,
178,
126,
313,
159,
185,
7,
-51,
54,
13,
40,
26,
65,
154,
85,
277,
144,
-52,
134,
86,
118,
6,
73,
6,
97,
-36,
52,
166,
61,
147,
204,
197,
-48,
50,
-53,
-24,
-18,
-9,
-78,
102,
81,
329,
269,
74,
-5,
-34,
-88,
-34,
25,
6,
72,
32,
186,
202,
206,
-22,
-30,
-6,
-10,
-20,
-55,
16,
66,
127,
43,
86,
85,
24,
-12,
-48,
-27,
-7,
8,
16,
38,
61,
35,
62,
-9,
72,
-54,
18,
15,
-20,
0,
24,
40,
75,
-8,
17,
17,
24,
46,
-42,
-7,
-3,
-23,
-22,
-30,
115,
174,
149,
65,
-28,
38,
52,
23,
4,
-20,
-11,
-5,
-3,
113,
82,
13,
-2,
29,
99,
-20,
-24,
-22,
-67,
-92,
-9,
-111,
-83,
75,
-124,
-101,
-20,
-100,
-21,
-77,
-128,
-214,
-76,
-145,
-100,
41,
-24,
-8,
-42,
-49,
-42,
-125,
-175,
-133,
-270,
-305,
-232,
174,
186,
93,
-27,
14,
-9,
-48,
-110,
-139,
-140,
-119,
-253,
48,
21,
146,
103,
-7,
6,
-12,
-46,
-64,
36,
-82,
-24,
98,
97,
-44,
11,
-39,
-13,
11,
-53,
-34,
-56,
-211,
9,
-15,
-132,
-73,
-158,
-18,
0,
-122,
-164,
-226,
-226,
-144,
-62,
-97,
-151,
-181,
-35,
-7,
-17,
-105,
-163,
-113,
-17,
35,
43,
14,
47,
-70,
-28,
-84,
-13,
-10,
6,
-48,
-6,
39,
-8,
-40,
60,
112,
-12,
-33,
-19,
-13,
-25,
25,
98,
100,
3,
-15,
-24,
10,
22,
-11,
9,
-7,
6,
3,
56,
51,
13,
-51,
0,
-4,
24,
-4,
-26,
-36,
-3,
-99,
-54,
-56,
-17,
187,
11,
21,
-24,
-14,
-48,
-7,
-8,
-111,
-121,
144,
157,
180,
256,
60,
82,
17,
-13,
53,
56,
-97,
-27,
93,
93,
21,
19,
113,
-28,
-34,
0,
10,
-108,
-121,
46,
59,
-28,
-99,
35,
108,
-121,
-73,
-8,
43,
-83,
-107,
-179,
97,
9,
100,
28,
-53,
-80,
-65,
-1,
-63,
-181,
-217,
-228,
-104,
59,
13,
-9,
-97,
-31,
-62,
-23,
-3,
-108,
-168,
-125,
64,
161,
57,
-73,
-14,
-68,
-17,
4,
-39,
-3,
4,
146,
348,
287,
159,
-48,
-79,
-41,
-53,
-5,
4,
26,
50,
197,
119,
176,
185,
123,
62,
0,
13,
-27,
-38,
51,
87,
92,
80,
28,
12,
-4,
-53,
-25,
-35,
-5,
6,
3,
-13,
18,
11,
49,
25,
23,
-61,
-8,
1,
-12,
-22,
-24,
-29,
2,
173,
-45,
50,
124,
84,
67,
-2,
-3,
10,
-65,
-131,
-112,
-53,
-157,
167,
106,
162,
24,
68,
-10,
-47,
4,
-133,
-163,
45,
39,
62,
98,
55,
202,
39,
3,
-37,
129,
99,
155,
203,
54,
6,
-138,
-70,
-51,
-38,
-62,
41,
11,
103,
147,
98,
103,
-229,
-154,
-110,
-127,
-93,
2,
58,
114,
35,
143,
36,
-217,
-39,
104,
50,
-21,
28,
18,
5,
-225,
-252,
-93,
-149,
19,
97,
182,
69,
53,
-1,
11,
-18,
-251,
-299,
-186,
-166,
89,
119,
67,
16,
-74,
-69,
-2,
-91,
-63,
-66,
9,
19,
24,
-149,
-179,
-146,
-89,
-71,
-23,
-46,
-58,
149,
45,
46,
-126,
-3,
22,
-8,
31,
60,
-4,
-50,
11,
63,
-19,
-20,
24,
45,
-18,
-95,
-39,
-12,
18,
3,
7,
3,
-8,
13,
73,
-31,
3,
45,
6,
5,
-22,
16,
71,
-78,
4,
-100,
-10,
61,
-23,
109,
56,
48,
-5,
42,
53,
-98,
-28,
-111,
-8,
-101,
-25,
132,
74,
67,
6,
108,
147,
79,
36,
-37,
72,
93,
-102,
59,
154,
2,
8,
66,
67,
-29,
182,
247,
-100,
-158,
-96,
100,
190,
-44,
23,
0,
-33,
53,
135,
180,
-92,
-301,
-46,
-14,
3,
73,
-3,
49,
39,
77,
118,
56,
-282,
-123,
3,
16,
96,
69,
-1,
96,
67,
58,
174,
-42,
-141,
-100,
86,
42,
161,
-44,
-12,
124,
-24,
134,
-26,
11,
-85,
-107,
86,
124,
10,
-6,
4,
70,
52,
-35,
53,
-70,
-82,
13,
-44,
-45,
4,
28,
20,
27,
-6,
-134,
16,
23,
-63,
-67,
-75,
-70,
-31,
18,
-26,
-22,
-27,
-70,
-73,
-40,
50,
54,
-27,
-21,
7,
22,
2,
1,
37,
-15,
-37,
-14,
15,
46,
-47,
34,
-32,
-8,
-12,
-14,
-28,
-68,
-68,
-42,
-89,
-38,
54,
52,
-12,
-6,
-18,
-64,
-51,
-44,
-274,
-78,
-19,
24,
54,
-61,
94,
-107,
-22,
-49,
46,
-82,
-30,
208,
229,
265,
80,
0,
-5,
77,
-44,
31,
111,
191,
226,
423,
429,
223,
-130,
-13,
23,
170,
-46,
163,
180,
197,
409,
463,
303,
39,
-258,
-121,
-51,
48,
28,
10,
-23,
136,
424,
402,
75,
-77,
-4,
-121,
-39,
-24,
-8,
-82,
-96,
123,
244,
170,
148,
323,
227,
193,
126,
142,
-27,
-52,
-31,
-19,
164,
186,
120,
282,
96,
236,
143,
19,
-96,
-11,
75,
93,
257,
179,
356,
105,
2,
-78,
-55,
-105,
-48,
27,
159,
200,
196,
38,
4,
-72,
-19,
-93,
-9,
-66,
7,
-15,
17,
40,
-8,
38,
-42,
-96,
-94,
-93,
4,
-15,
14,
23,
32,
52,
4,
-13,
12,
27,
1,
50,
-16,
21,
19,
3,
-4,
29,
103,
111,
88,
188,
79,
-12,
69,
61,
15,
-4,
125,
26,
39,
151,
66,
158,
143,
103,
-11,
82,
35,
-3,
107,
172,
198,
87,
2,
178,
168,
168,
88,
-35,
26,
-12,
-8,
-42,
184,
271,
20,
-86,
218,
126,
203,
-88,
25,
36,
-48,
121,
160,
-4,
-117,
16,
194,
48,
163,
98,
15,
36,
34,
-24,
-83,
192,
-2,
289,
265,
218,
78,
85,
17,
60,
42,
-33,
-8,
-175,
196,
243,
149,
45,
-71,
-96,
-24,
19,
74,
-130,
-119,
78,
258,
285,
-26,
-152,
-86,
-40,
-38,
-23,
-13,
-110,
-159,
-1,
103,
54,
-46,
-44,
6,
-15,
-15,
-39,
65,
-21,
-103,
75,
234,
132,
-97,
121,
2,
-54,
-18,
19,
-31,
-36,
-75,
-79,
114,
113,
91,
-27,
42,
29,
13,
6,
18,
-14,
-21,
-4,
-29,
19,
-2,
-1,
27,
12,
0,
-6,
12,
42,
96,
-44,
-21,
-24,
-15,
-47,
-55,
-11,
-11,
-48,
43,
93,
42,
-49,
-47,
-142,
-109,
-134,
-124,
-11,
5,
46,
26,
42,
90,
118,
16,
-103,
43,
-191,
-88,
-35,
6,
129,
10,
114,
15,
204,
26,
-134,
-120,
-53,
-144,
-21,
-6,
-3,
-4,
-35,
-37,
51,
43,
-148,
-46,
-38,
-7,
-89,
-10,
-57,
-51,
-108,
1,
-79,
-160,
-49,
47,
102,
94,
48,
-27,
-42,
-198,
-187,
-122,
-255,
-57,
-130,
59,
50,
52,
58,
-82,
-27,
-141,
-100,
-44,
108,
59,
79,
-87,
-9,
24,
14,
-22,
-41,
1,
8,
-62,
-52,
63,
106,
-19,
-26,
77,
68,
-21,
6,
10,
29,
111,
177,
89,
37,
11,
80,
-115,
14,
23,
13,
63,
80,
91,
66,
38,
5,
-9,
49,
-78,
-16,
9,
20,
6,
-5,
-20,
-39,
34,
-43,
-38,
16,
25,
16,
3,
5,
0,
-4,
-3,
-6,
8,
53,
52,
6,
18,
11,
-35,
0,
71,
22,
-4,
192,
340,
174,
158,
52,
20,
27,
30,
-18,
60,
-4,
266,
157,
212,
141,
189,
-13,
23,
51,
43,
-20,
54,
59,
163,
212,
31,
208,
102,
125,
87,
-7,
99,
49,
95,
-15,
169,
-4,
44,
-81,
-125,
-102,
-82,
-35,
-27,
35,
98,
9,
19,
-149,
-90,
-198,
-229,
-171,
-137,
-3,
-41,
5,
-10,
154,
10,
121,
-133,
-42,
-177,
-155,
-31,
-20,
-17,
-8,
40,
59,
58,
-15,
-52,
-135,
4,
-97,
17,
-29,
-32,
71,
78,
141,
-119,
16,
68,
-7,
-135,
28,
63,
28,
33,
0,
-61,
-4,
-37,
-50,
-53,
-120,
-12,
26,
20,
56,
52,
-4,
20,
-15,
-111,
-132,
46,
102,
111,
125,
2,
61,
25,
1,
-19,
-17,
-33,
6,
4,
32,
33,
17,
28,
6,
-2,
-24,
-48,
51,
60,
84,
118,
79,
131,
-36,
-32,
-30,
-40,
-32,
78,
156,
239,
152,
304,
272,
92,
-3,
-23,
0,
35,
23,
97,
62,
144,
74,
7,
120,
57,
56,
-72,
-88,
44,
11,
-23,
-160,
-55,
-98,
-222,
-76,
7,
98,
-41,
8,
48,
15,
-320,
-267,
-192,
-104,
123,
177,
100,
6,
-152,
-102,
0,
-141,
-261,
-387,
-41,
195,
22,
0,
-138,
-100,
-96,
-94,
-45,
-175,
-249,
-99,
136,
285,
40,
-44,
-128,
-150,
-60,
16,
-57,
-106,
-101,
79,
174,
258,
-165,
-142,
-248,
-108,
-3,
141,
-29,
-54,
84,
178,
253,
-18,
92,
83,
-104,
-135,
36,
-1,
33,
53,
124,
275,
56,
35,
-81,
-60,
11,
-20,
29,
69,
32,
83,
103,
199,
83,
-25,
49,
9,
25,
45,
-11,
54,
16,
37,
9,
0,
55,
24,
-42,
-13,
40,
26,
-12,
5,
0,
0,
4,
31,
82,
40,
86,
54,
24,
8,
-24,
33,
11,
6,
-8,
26,
142,
218,
100,
104,
72,
-95,
-52,
-23,
21,
-9,
14,
32,
128,
139,
179,
83,
49,
-1,
30,
-36,
-1,
11,
12,
-53,
127,
85,
98,
74,
3,
35,
-84,
-58,
-7,
-47,
-19,
-105,
3,
76,
147,
186,
52,
-32,
-88,
-26,
5,
11,
-157,
-206,
-105,
108,
296,
136,
-35,
-14,
2,
-44,
6,
-54,
-41,
-110,
65,
172,
244,
133,
12,
60,
-2,
-10,
6,
-37,
-54,
-35,
38,
38,
97,
23,
37,
-26,
-1,
29,
17,
-32,
-37,
-29,
-37,
-13,
-1,
-53,
-34,
35,
20,
41,
-3,
17,
-17,
-28,
-48,
-29,
-125,
-87,
12,
-29,
-32,
9,
25,
39,
65,
-9,
34,
-69,
-47,
5,
-11,
13,
8,
42,
50,
51,
51,
48,
-19,
-37,
-9,
-86,
-5,
36,
36,
5,
17,
47,
-7,
-78,
-109,
51,
-183,
-192,
-87,
-19,
-68,
-73,
50,
37,
23,
30,
-96,
21,
-146,
94,
46,
-192,
-123,
-60,
46,
34,
98,
97,
154,
245,
169,
144,
-59,
-149,
-80,
-70,
77,
-20,
129,
195,
183,
61,
-78,
-216,
-25,
-47,
-37,
-16,
60,
192,
30,
211,
5,
-28,
-360,
-69,
-3,
-6,
216,
-7,
-11,
164,
0,
-72,
20,
-205,
-150,
11,
127,
163,
25,
-93,
14,
26,
1,
-203,
-188,
-168,
17,
-77,
-122,
-16,
-7,
-99,
63,
-6,
174,
-360,
-331,
-44,
137,
19,
38,
90,
-40,
-41,
31,
-1,
-79,
-222,
-107,
104,
182,
149,
46,
73,
-84,
11,
77,
14,
-38,
-12,
7,
220,
175,
50,
-60,
12,
-17,
34,
51,
16,
-5,
109,
380,
189,
228,
44,
25,
86,
90,
52,
14,
16,
-52,
-5,
76,
61,
-27,
-33,
51,
39,
-4,
-9,
-41,
-61,
4,
141,
234,
263,
138,
73,
24,
-118,
-53,
11,
-37,
44,
221,
206,
329,
365,
179,
-22,
-79,
-166,
-38,
-87,
18,
93,
114,
44,
166,
62,
56,
70,
9,
-89,
-104,
-19,
100,
56,
-27,
-141,
-17,
114,
223,
110,
43,
-148,
-86,
-70,
-1,
-49,
-179,
-285,
-219,
145,
41,
76,
-72,
-170,
-89,
-38,
-43,
-90,
-295,
-271,
-19,
182,
148,
-116,
-87,
0,
-35,
-32,
-49,
-116,
-168,
-66,
195,
36,
8,
147,
-31,
34,
29,
2,
-41,
-84,
-22,
16,
177,
-35,
-75,
-40,
63,
16,
63,
16,
-20,
22,
145,
50,
181,
21,
-39,
-30,
-39,
35,
33,
21,
-4,
76,
46,
98,
80,
-90,
-266,
-72,
-23,
-24,
22,
15,
54,
87,
172,
3,
59,
-5,
42,
-35,
-18,
-34,
25,
44,
18,
41,
28,
55,
64,
3,
-32,
-44,
-4,
46,
21,
49,
25,
55,
39,
-17,
147,
138,
124,
19,
0,
-60,
25,
26,
28,
-55,
76,
143,
207,
164,
27,
46,
-43,
-65,
-32,
-10,
17,
-46,
-12,
-9,
165,
148,
135,
-19,
-40,
-37,
-34,
27,
2,
-16,
-26,
-118,
-76,
28,
-24,
-1,
-20,
-111,
-135,
-1,
3,
27,
-116,
-198,
-81,
117,
100,
164,
-28,
-7,
34,
-16,
-21,
-79,
-93,
-45,
-7,
265,
210,
140,
-38,
-7,
10,
-42,
-21,
-28,
-20,
100,
202,
110,
39,
88,
-17,
-39,
-28,
-1,
-23,
-31,
143,
156,
364,
4,
-140,
-77,
-161,
-167,
-128,
-27,
-50,
3,
-65,
87,
164,
-49,
-131,
-3,
-26,
-80,
12,
2,
-44,
-14,
16,
-15,
-103,
-222,
-328,
-141,
-84,
-38,
-48,
50,
-25,
-31,
-65,
-38,
-109,
-123,
-194,
-137,
-82,
7,
54,
55,
4,
-4,
3,
-24,
0,
-16,
-27,
-52,
-24,
13,
1,
-4,
-29,
2,
-38,
-60,
-88,
-126,
-71,
-201,
-8,
-48,
17,
-39,
-22,
29,
-54,
-75,
-113,
-93,
-100,
-141,
22,
-62,
-16,
-21,
-6,
2,
-8,
-54,
-192,
-6,
5,
46,
-35,
22,
81,
-48,
8,
-9,
-21,
-43,
60,
-26,
-3,
-51,
98,
61,
4,
44,
0,
-17,
76,
-3,
-8,
32,
-125,
-218,
-59,
-17,
-19,
49,
-42,
28,
50,
-73,
8,
-29,
-113,
-82,
-62,
-94,
-58,
-39,
-11,
11,
-37,
1,
114,
30,
-83,
18,
-175,
-69,
24,
18,
7,
-26,
33,
93,
-98,
118,
-26,
-174,
-134,
8,
74,
48,
-19,
13,
16,
23,
158,
30,
-26,
-113,
-73,
-133,
2,
-50,
-23,
29,
4,
-28,
-105,
-24,
43,
-49,
-174,
-66,
-17,
-5,
0,
8,
1,
-54,
2,
-69,
16,
52,
67,
-26,
-21,
27,
24,
17,
28,
61,
14,
-71,
-90,
-70,
-47,
22,
71,
22,
26,
12,
-67,
-156,
-54,
24,
175,
23,
309,
-34,
-67,
62,
-4,
-133,
-198,
-211,
-356,
121,
314,
183,
308,
142,
229,
7,
-8,
-97,
-134,
-231,
-88,
207,
407,
24,
69,
169,
61,
129,
5,
-78,
-209,
39,
248,
428,
216,
-247,
-133,
111,
-89,
-113,
4,
52,
209,
95,
478,
384,
-126,
-233,
-275,
-333,
-186,
14,
-12,
126,
201,
205,
414,
252,
-70,
-104,
-440,
-378,
-178,
-93,
-72,
124,
130,
179,
330,
154,
-292,
-447,
-415,
-237,
-103,
-57,
-37,
-34,
216,
392,
298,
-101,
-184,
-310,
-273,
-257,
-37,
-13,
-71,
66,
75,
128,
40,
-15,
-317,
-192,
-313,
-32,
29,
134,
-7,
-14,
-30,
94,
-48,
-132,
-3,
6,
-72,
21,
101,
41,
14,
-20,
20,
-78,
-11,
-229,
152,
85,
136,
109,
40,
52,
44,
40,
15,
13,
52,
-29,
-4,
5,
-25,
-24,
31,
36,
10,
7,
-39,
-59,
-71,
-78,
-73,
-71,
-39,
-3,
-4,
13,
10,
-49,
-52,
-125,
-184,
-78,
-183,
-121,
79,
129,
-70,
-2,
6,
-31,
-2,
-75,
-132,
165,
-59,
-60,
-14,
-62,
-81,
102,
52,
41,
-54,
42,
173,
172,
-114,
-169,
-41,
142,
117,
91,
8,
4,
47,
16,
278,
-31,
-163,
-125,
-61,
9,
69,
-27,
10,
-4,
96,
137,
58,
-88,
88,
-233,
-55,
-66,
42,
33,
29,
-71,
60,
-3,
-186,
-101,
-59,
-76,
-16,
-64,
51,
46,
-24,
19,
38,
-92,
-194,
-31,
6,
141,
50,
-63,
21,
9,
-39,
0,
-50,
-233,
-189,
11,
135,
77,
51,
-16,
115,
78,
40,
33,
-71,
-221,
-134,
8,
254,
148,
185,
92,
24,
81,
40,
-4,
30,
-135,
11,
181,
297,
241,
156,
178,
23,
45,
-3,
4,
-2,
7,
47,
38,
-2,
-4,
0,
23,
2,
3,
-12,
-26,
-34,
-3,
88,
131,
158,
90,
67,
0,
15,
28,
13,
-5,
-30,
-4,
55,
84,
56,
73,
-33,
-4,
38,
16,
-10,
-40,
-84,
-73,
-73,
65,
84,
10,
48,
0,
-47,
22,
17,
15,
-85,
-56,
-16,
108,
127,
28,
-56,
-10,
-11,
-22,
15,
-53,
-95,
24,
90,
64,
-129,
-7,
-52,
-52,
-77,
-38,
-33,
-9,
-110,
44,
221,
62,
41,
-239,
-239,
-149,
-68,
-64,
-53,
-46,
-4,
156,
163,
15,
6,
-179,
-214,
-63,
-8,
1,
1,
8,
58,
83,
170,
-65,
-172,
-135,
-137,
-93,
16,
71,
-18,
-27,
75,
110,
202,
90,
-13,
16,
-61,
-31,
5,
6,
18,
21,
3,
80,
-5,
-4,
19,
-11,
-15,
9,
44,
16,
-13,
43,
30,
-33,
5,
31,
121,
114,
48,
39,
1,
21,
28,
-2,
-11,
36,
30,
-119,
-81,
-27,
-44,
-8,
13,
17,
-67,
-26,
24,
57,
21,
-100,
-145,
-229,
51,
-205,
-17,
-23,
-32,
10,
108,
109,
205,
133,
-110,
-177,
-144,
-297,
-107,
-103,
40,
72,
41,
60,
-6,
94,
-211,
-80,
-56,
-143,
-97,
-29,
124,
140,
-33,
50,
-100,
91,
18,
-179,
-59,
-164,
-59,
-51,
-32,
-39,
-42,
-250,
-278,
-4,
-70,
-157,
-71,
98,
-153,
49,
-61,
-53,
-198,
-186,
-352,
-68,
-236,
-3,
157,
142,
85,
26,
-36,
-76,
-159,
-347,
-139,
97,
-143,
46,
9,
104,
152,
30,
19,
-65,
-118,
-34,
-201,
169,
349,
-14,
-11,
12,
-34,
-33,
0,
13,
110,
-13,
146,
140,
174,
123,
-59,
-58,
75,
-14,
11,
45,
45,
219,
134,
55,
138,
-98,
26,
-177,
-26,
15,
37,
103,
89,
92,
47,
202,
-18,
3,
-19,
-101,
15,
12,
33,
42,
41,
29,
28,
-10,
-21,
-47,
-15,
25,
43,
25,
20,
22,
38,
-66,
-104,
100,
-95,
-193,
-68,
-76,
35,
-51,
35,
36,
-65,
81,
210,
174,
47,
-95,
-50,
-234,
-246,
-52,
69,
5,
192,
274,
288,
304,
195,
296,
62,
-90,
-142,
-123,
47,
76,
180,
22,
-11,
85,
169,
-59,
78,
-127,
-126,
-104,
30,
142,
67,
-83,
-171,
115,
89,
-17,
-97,
-114,
111,
-11,
-24,
103,
-54,
-107,
-319,
-59,
2,
-30,
-90,
64,
59,
-44,
8,
-27,
-96,
-292,
-188,
131,
-17,
-64,
14,
47,
16,
-62,
23,
-1,
-93,
-230,
-165,
223,
-51,
-3,
-94,
-1,
-30,
-37,
30,
-19,
44,
-156,
-12,
135,
167,
-95,
-21,
40,
-70,
4,
28,
37,
15,
94,
125,
24,
-76,
0,
-98,
-122,
0,
18,
37,
41,
13,
143,
207,
-87,
-82,
-178,
-205,
-84,
10,
79,
54,
17,
25,
29,
39,
-29,
-39,
14,
31,
1,
43,
41,
-7,
9,
-3,
-39,
20,
73,
99,
1,
51,
-29,
-7,
-13,
3,
-6,
-13,
-90,
-30,
190,
112,
81,
5,
-6,
-28,
5,
47,
-22,
-137,
-50,
13,
77,
124,
224,
-48,
30,
-15,
-2,
75,
8,
-26,
32,
261,
261,
202,
29,
126,
16,
6,
7,
37,
97,
155,
202,
207,
144,
-33,
-141,
33,
-5,
-16,
4,
41,
90,
69,
322,
122,
-33,
-5,
-125,
-55,
-60,
-108,
-15,
-24,
89,
32,
147,
-89,
-166,
-324,
41,
72,
26,
-35,
-70,
-12,
68,
72,
201,
-40,
-240,
-66,
-69,
-54,
11,
31,
-8,
-10,
9,
54,
-71,
-79,
-152,
-109,
-174,
-143,
81,
7,
23,
42,
37,
28,
-66,
-38,
-59,
-84,
-11,
-7,
92,
48,
46,
55,
2,
-27,
-96,
133,
162,
196,
59,
54,
94,
74,
82,
-2,
9,
-16,
-11,
-15,
-28,
-33,
-24,
14,
-3,
11,
-10,
-2,
-1,
-31,
-47,
-77,
-93,
-107,
-81,
0,
-32,
15,
14,
-11,
29,
15,
-58,
14,
69,
44,
40,
-56,
-99,
4,
-17,
39,
6,
13,
75,
137,
67,
9,
43,
-120,
-75,
-67,
9,
83,
24,
44,
71,
149,
150,
-21,
3,
11,
-17,
-60,
-5,
31,
-33,
55,
-78,
49,
161,
-89,
-155,
59,
-67,
26,
38,
-7,
9,
-103,
-108,
16,
74,
-72,
31,
-11,
-106,
-23,
0,
-28,
-15,
-117,
-30,
26,
104,
107,
147,
-71,
13,
9,
21,
8,
-21,
-25,
-42,
-22,
102,
-13,
-60,
40,
32,
43,
4,
-12,
21,
68,
-48,
177,
52,
-175,
-43,
-5,
-50,
40,
9,
-17,
56,
-55,
-3,
1,
-66,
-143,
-60,
-15,
-25,
29,
40,
29,
6,
19,
-55,
-16,
-53,
-56,
-20,
-8,
-35,
0,
22,
39,
49,
26,
17,
44,
56,
3,
6,
69,
59,
3,
28,
41,
24,
29,
43,
105,
14,
25,
93,
32,
-38,
35,
36,
4,
36,
26,
-27,
34,
221,
27,
94,
56,
-29,
-15,
-37,
3,
8,
-45,
-36,
57,
262,
386,
276,
139,
158,
10,
24,
42,
43,
75,
7,
110,
90,
169,
5,
48,
100,
-83,
4,
48,
26,
21,
63,
203,
95,
121,
82,
41,
74,
-5,
-18,
69,
38,
22,
-6,
123,
58,
225,
-89,
-205,
-77,
-69,
-14,
38,
-60,
-3,
-2,
19,
-61,
53,
-12,
-159,
15,
-39,
-19,
-21,
-5,
-22,
-48,
-30,
86,
-56,
103,
-69,
-71,
33,
-3,
12,
-73,
7,
-71,
-10,
-154,
-106,
-82,
-54,
4,
45,
44,
0,
66,
-38,
-23,
-89,
-40,
-141,
-125,
9,
-21,
27,
25,
53,
5,
-2,
-65,
-90,
29,
-28,
29,
-9,
3,
79,
64,
-30,
-31,
-18,
-32,
12,
2,
-58,
-39,
6,
-19,
-44,
-26,
-42,
-49,
-28,
54,
53,
28,
39,
-41,
-53,
-18,
41,
-25,
-31,
-4,
37,
-22,
87,
99,
251,
119,
-91,
-102,
-99,
-65,
15,
-50,
2,
48,
97,
-73,
29,
-24,
-155,
-205,
-124,
13,
-12,
-27,
-123,
-182,
-177,
-415,
-185,
-268,
-66,
-94,
-119,
-100,
-27,
-150,
-124,
-210,
-59,
38,
161,
104,
-14,
-61,
-146,
-35,
-109,
-83,
-191,
-252,
-132,
265,
182,
-29,
-26,
-142,
-40,
6,
-69,
-70,
-154,
-192,
147,
127,
36,
42,
-152,
-1,
12,
-22,
-31,
-24,
12,
-48,
252,
300,
109,
60,
1,
-99,
-45,
-14,
9,
-50,
122,
140,
327,
196,
-125,
-56,
-65,
-39,
-41,
-56,
-40,
13,
30,
91,
89,
85,
-40,
-69,
-75,
-23,
-77,
6,
-12,
-11,
-63,
-100,
-112,
-31,
-149,
-66,
-76,
-114,
-19,
-12,
-3,
-17,
-6,
6,
-25,
-40,
-52,
-7,
17,
11,
9,
-4,
-1,
0,
-58,
10,
104,
60,
41,
81,
74,
41,
-6,
-42,
-35,
-77,
-11,
68,
94,
80,
83,
76,
103,
4,
90,
53,
6,
-18,
-44,
-61,
-67,
48,
114,
57,
3,
109,
-20,
-86,
-1,
-72,
-97,
2,
133,
303,
113,
108,
100,
-14,
-11,
-36,
-5,
-53,
-28,
24,
134,
158,
158,
37,
-172,
-111,
-52,
-79,
3,
-24,
44,
115,
262,
243,
132,
-65,
-185,
-174,
-67,
-63,
-26,
-41,
5,
245,
300,
259,
159,
-160,
-295,
-191,
-93,
-47,
-31,
-46,
84,
129,
126,
112,
45,
-94,
-160,
-6,
46,
45,
-57,
-89,
1,
56,
156,
-6,
65,
83,
-1,
-45,
-48,
-25,
4,
-15,
-87,
-75,
-110,
210,
97,
93,
17,
-33,
-22,
38,
25,
-3,
-18,
-27,
-87,
-9,
19,
-27,
-75,
-52,
1,
34,
0,
-26,
-9,
-33,
-2,
-25,
-4,
10,
15,
4,
-21,
-16,
-21,
-39,
-53,
-82,
-8,
24,
2,
6,
128,
-30,
-18,
-49,
-7,
-67,
-97,
-176,
-98,
52,
118,
183,
188,
49,
48,
50,
15,
-43,
-224,
-179,
16,
39,
85,
210,
25,
21,
-35,
-67,
3,
-69,
-174,
34,
11,
-12,
-34,
-180,
63,
161,
44,
8,
-6,
35,
31,
196,
145,
26,
-225,
-83,
-139,
-102,
-141,
-109,
-7,
-40,
57,
178,
153,
122,
-177,
-268,
-245,
-199,
-131,
-160,
-74,
-70,
136,
299,
239,
101,
-11,
-317,
-390,
-184,
-57,
-17,
-55,
-46,
130,
242,
293,
16,
-18,
-213,
-278,
-91,
24,
80,
-73,
-63,
212,
221,
260,
-2,
116,
66,
-158,
-39,
-27,
0,
23,
72,
96,
4,
66,
111,
117,
106,
-33,
0,
-10,
26,
40,
67,
-15,
-2,
-62,
138,
140,
140,
-8,
21,
26,
11,
32,
38,
-8,
5,
20,
-20,
-3,
-18,
-26,
13,
17,
31,
-23,
-11,
-18,
-56,
-62,
-244,
-66,
-65,
-65,
-127,
0,
28,
-24,
-50,
60,
-106,
-183,
-117,
47,
43,
46,
-152,
-11,
-28,
14,
-13,
41,
0,
163,
90,
-6,
-83,
94,
-43,
-29,
50,
76,
49,
133,
188,
179,
98,
-198,
-205,
-11,
-55,
-60,
5,
55,
137,
141,
145,
166,
-62,
-220,
-208,
-46,
-95,
-58,
17,
1,
92,
39,
37,
8,
-256,
3,
-71,
32,
-8,
-66,
86,
-33,
-10,
-81,
50,
-276,
-21,
-61,
109,
-46,
-77,
3,
83,
-28,
-11,
-16,
-71,
-146,
41,
90,
40,
74,
-92,
83,
-5,
6,
-36,
-53,
69,
-55,
189,
190,
111,
33,
131,
-3,
4,
-11,
-21,
-53,
-70,
-35,
113,
88,
71,
45,
45,
38,
13,
21,
55,
55,
141,
111,
47,
102,
46,
102,
-2,
11,
24,
22,
26,
37,
-1,
50,
17,
-41,
3,
-30,
-10,
23,
21,
43,
-7,
-23,
-104,
-182,
-202,
-266,
-97,
18,
134,
-81,
0,
19,
-67,
-225,
-384,
-404,
-275,
-102,
119,
156,
5,
-41,
18,
57,
-123,
-191,
-218,
-144,
218,
161,
2,
159,
71,
83,
132,
32,
-7,
-5,
163,
321,
109,
-1,
8,
164,
70,
48,
-60,
29,
106,
184,
414,
278,
-49,
22,
0,
150,
41,
-27,
-3,
24,
157,
201,
236,
-108,
16,
-97,
177,
89,
55,
-11,
-69,
6,
160,
188,
-6,
70,
-229,
-66,
181,
-42,
-16,
-62,
-129,
-55,
67,
76,
176,
-77,
-205,
-91,
42,
-83,
-40,
5,
-37,
-59,
114,
-85,
-152,
-330,
-12,
-313,
50,
-44,
116,
84,
120,
75,
-32,
-85,
-116,
-20,
-10,
-17,
73,
-29,
240,
92,
113,
65,
28,
-12,
-181,
74,
163,
229,
103,
207,
215,
64,
89,
33,
31,
19,
66,
53,
22,
28,
16,
0,
42,
29,
57,
-3,
27,
55,
52,
-12,
-43,
73,
42,
41,
-79,
-31,
37,
34,
13,
4,
136,
324,
183,
300,
211,
289,
-8,
-159,
-85,
25,
31,
70,
111,
215,
353,
257,
85,
144,
145,
32,
-32,
10,
60,
27,
31,
-147,
193,
270,
211,
35,
81,
-193,
-128,
-10,
79,
37,
-163,
0,
116,
289,
282,
-111,
-147,
-137,
15,
20,
-67,
-124,
-189,
-193,
282,
540,
103,
-255,
-204,
-3,
-31,
-31,
-28,
-88,
-107,
64,
502,
359,
-105,
-16,
-14,
-5,
-25,
-23,
-59,
-190,
-54,
76,
352,
149,
186,
-77,
-134,
-48,
-80,
-27,
-95,
0,
-159,
-37,
57,
47,
-147,
-121,
134,
-38,
10,
-2,
0,
-30,
116,
35,
-221,
-206,
-208,
12,
-60,
-36,
18,
40,
3,
-69,
-33,
-128,
-167,
-193,
-217,
-185,
-48,
32,
64,
};

#endif // CNN_FPGA_H_